fffeb7c6
fffeb7c6
fffeb7c6
fffeb7c6
fffeb7c6
fffeb7c6
fffeb7c6
fffeb7c6
fffeb7c6
fffeb7c6
fffeb7c6
fffeb7c6
fffeb7c6
fffeb7c6
fffeb7c6
fffeb7c6
fffeb7c6
fffeb7c6
fffeb7c6
fffeb7c6
fffeb7c6
fffeb7c6
fffeb7c6
fffeb7c6
fffeb7c6
fffeb7c6
fffeb7c6
fffeb7c6
fffeb7c6
fffeb7c6
fffeb7c6
fffeb7c6
fffeb7c6
fffeb7c6
fffeb7c6
fffeb7c6
fffeb7c6
fffeb7c6
fffeb7c6
fffeb7c6
fffeb7c6
fffeb7c6
fffeb7c6
fffeb7c6
fffeb7c6
fffeb7c6
fffeb7c6
fffeb7c6
fffeb7c6
fffeb7c6
fffeb7c6
fffeb7c6
fffeb7c6
fffeb7c6
fffeb7c6
fffeb7c6
fffeb7c6
fffeb7c6
fffeb7c6
fffeb7c6
fffeb7c6
fffeb7c6
fffeb7c6
fffeb7c6
fffeb7c6
fffeb7c6
fffeb7c6
fffeb7c6
fffeb7c6
fffeb7c6
fffeb7c6
fffeb7c6
fffeb7c6
fffeb7c6
fffeb7c6
fffeb7c6
fffeb7c6
fffeb7c6
fffeb7c6
fffeb7c6
fffeb7c6
fffeb7c6
fffeb7c6
fffeb7c6
fffeb7c6
fffeb7c6
fffeb7c6
fffeb7c6
fffeb7c6
fffeb7c6
fffeb7c6
fffeb7c6
fffeb7c6
fffeb7c6
fffeb7c6
fffeb7c6
fffeb7c6
fffeb7c6
fffeb7c6
fffeb7c6
fffeb7c6
fffeb7c6
fffeb7c6
fffeb7c6
fffeb7c6
fffeb7c6
fffeb7c6
fffeb7c6
fffeb7c6
fffeb7c6
fffeb7c6
fffeb7c6
fffeb7c6
fffeb7c6
fffeb7c6
fffeb7c6
fffeb7c6
fffeb7c6
fffeb7c6
fffeb7c6
fffeb7c6
fffeb7c6
fffeb7c6
fffeb7c6
fffeb7c6
fffeb7c6
fffeb7c6
fffeb7c6
fffeb7c6
fffeb7c6
fffeb7c6
fffeb7c6
fffeb7c6
fffeb7c6
fffeb7c6
fffeb7c6
fffeb7c6
fffeb7c6
fffeb7c6
fffeb7c6
fffeb7c6
fffeb7c6
fffeb7c6
fffeb7c6
fffeb7c6
fffeb7c6
fffeb7c6
fffeb7c6
fffeb7c6
fffeb7c6
fffeb7c6
fffeb7c6
fffeb7c6
fffeb7c6
fffeb7c6
fffeb7c6
fffeb7c6
fffeb7c6
fffeb7c6
fffeb7c6
fffeb7c6
fffeb7c6
fffeb7c6
fffeb7c6
fffeb7c6
fffeb7c6
fffeb7c6
fffeb7c6
fffeb7c6
fffeb7c6
fffeb7c6
fffeb7c6
fffeb7c6
fffeb7c6
fffeb7c6
fffeb7c6
fffeb7c6
fffeb7c6
fffeb7c6
fffeb7c6
fffeb7c6
fffeb7c6
fffeb7c6
fffeb7c6
fffeb7c6
fffeb7c6
fffeb7c6
fffeb7c6
fffeb7c6
fffeb7c6
fffeb7c6
fffeb7c6
fffeb7c6
fffeb7c6
fffeb7c6
fffeb7c6
