fffeb7c6
fffeb7c6
fffeb7c6
fffeb7c6
fffeb7c6
fffeb7c6
fffeb7c6
fffeb7c6
fffeb7c6
fffeb7c6
fffeb7c6
fffeb7c6
fffeb7c6
fffeb7c6
fffeb7c6
fffeb7c6
fffeb7c6
fffeb7c6
fffeb7c6
fffeb7c6
fffeb7c6
fffeb7c6
fffeb7c6
fffeb7c6
fffeb7c6
fffeb7c6
fffeb7c6
fffeb7c6
fffeb7c6
fffeb7c6
fffeb7c6
fffeb7c6
fffeb7c6
fffeb7c6
fffeb7c6
fffeb7c6
fffeb7c6
fffeb7c6
fffeb7c6
fffeb7c6
fffeb7c6
fffeb7c6
fffeb7c6
fffeb7c6
fffeb7c6
fffeb7c6
fffeb7c6
fffeb7c6
fffeb7c6
fffeb7c6
fffeb7c6
fffeb7c6
fffeb7c6
fffeb7c6
fffeb7c6
fffeb7c6
fffeb7c6
fffeb7c6
fffeb7c6
fffeb7c6
fffeb7c6
fffeb7c6
fffeb7c6
fffeb7c6
fffeb7c6
fffeb7c6
fffeb7c6
fffeb7c6
fffeb7c6
fffeb7c6
fffeb7c6
fffeb7c6
fffeb7c6
fffeb7c6
fffeb7c6
fffeb7c6
fffeb7c6
fffeb7c6
fffeb7c6
fffeb7c6
fffeb7c6
fffeb7c6
fffeb7c6
fffeb7c6
fffeb7c6
fffeb7c6
fffeb7c6
fffeb7c6
fffeb7c6
fffeb7c6
fffeb7c6
fffeb7c6
fffeb7c6
fffeb7c6
fffeb7c6
fffeb7c6
fffeb7c6
fffeb7c6
fffeb7c6
fffeb7c6
fffeb7c6
fffeb7c6
fffeb7c6
fffeb7c6
fffeb7c6
fffeb7c6
fffeb7c6
fffeb7c6
fffeb7c6
fffeb7c6
fffeb7c6
fffeb7c6
fffeb7c6
fffeb7c6
fffeb7c6
fffeb7c6
fffeb7c6
fffeb7c6
fffeb7c6
fffeb7c6
fffeb7c6
fffeb7c6
fffeb7c6
fffeb7c6
fffeb7c6
fffeb7c6
fffeb7c6
fffeb7c6
fffeb7c6
fffeb7c6
fffeb7c6
fffeb7c6
fffeb7c6
fffeb7c6
fffeb7c6
fffeb7c6
fffeb7c6
fffeb7c6
fffeb7c6
fffeb7c6
fffeb7c6
fffeb7c6
fffeb7c6
fffeb7c6
fffeb7c6
fffeb7c6
fffeb7c6
fffeb7c6
fffeb7c6
fffeb7c6
fffeb7c6
fffeb7c6
fffeb7c6
fffeb7c6
fffeb7c6
fffeb7c6
fffeb7c6
fffeb7c6
fffeb7c6
fffeb7c6
fffeb7c6
fffeb7c6
fffeb7c6
fffeb7c6
fffeb7c6
fffeb7c6
fffeb7c6
fffeb7c6
fffeb7c6
fffeb7c6
fffeb7c6
fffeb7c6
fffeb7c6
fffeb7c6
fffeb7c6
fffeb7c6
fffeb7c6
fffeb7c6
fffeb7c6
fffeb7c6
fffeb7c6
fffeb7c6
fffeb7c6
fffeb7c6
fffeb7c6
fffeb7c6
fffeb7c6
fffeb7c6
fffeb7c6
fffeb7c6
fffeb7c6
fffeb7c6
fffeb7c6
fffeb7c6
fffeb7c6
fffeb7c6
fffe5829
fffe5829
fffe5829
fffe5829
fffe5829
fffe5829
fffe5829
fffe5829
fffe5829
fffe5829
fffe5829
fffe5829
fffe5829
fffe5829
fffe5829
fffe5829
fffe5829
fffe5829
fffe5829
fffe5829
fffe5829
fffe5829
fffe5829
fffe5829
fffe5829
fffe5829
fffe5829
fffe5829
fffe5829
fffe5829
fffe5829
fffe5829
fffe5829
fffe5829
fffe5829
fffe5829
fffe5829
fffe5829
fffe5829
fffe5829
fffe5829
fffe5829
fffe5829
fffe5829
fffe5829
fffe5829
fffe5829
fffe5829
fffe5829
fffe5829
fffe5829
fffe5829
fffe5829
fffe5829
fffe5829
fffe5829
fffe5829
fffe5829
fffe5829
fffe5829
fffe5829
fffe5829
fffe5829
fffe5829
fffe5829
fffe5829
fffe5829
fffe5829
fffe5829
fffe5829
fffe5829
fffe5829
fffe5829
fffe5829
fffe5829
fffe5829
fffe5829
fffe5829
fffe5829
fffe5829
fffe5829
fffe5829
fffe5829
fffe5829
fffe5829
fffe5829
fffe5829
fffe5829
fffe5829
fffe5829
fffe5829
fffe5829
fffe5829
fffe5829
fffe5829
fffe5829
fffe5829
fffe5829
fffe5829
fffe5829
fffe5829
fffe5829
fffe5829
fffe5829
fffe5829
fffe5829
fffe5829
fffe5829
fffe5829
fffe5829
fffe5829
fffe5829
fffe5829
fffe5829
fffe5829
fffe5829
fffe5829
fffe5829
fffe5829
fffe5829
fffe5829
fffe5829
fffe5829
fffe5829
fffe5829
fffe5829
fffe5829
fffe5829
fffe5829
fffe5829
fffe5829
fffe5829
fffe5829
fffe5829
fffe5829
fffe5829
fffe5829
fffe5829
fffe5829
fffe5829
fffe5829
fffe5829
fffe5829
fffe5829
fffe5829
fffe5829
fffe5829
fffe5829
fffe5829
fffe5829
fffe5829
fffe5829
fffe5829
fffe5829
fffe5829
fffe5829
fffe5829
fffe5829
fffe5829
fffe5829
fffe5829
fffe5829
fffe5829
fffe5829
fffe5829
fffe5829
fffe5829
fffe5829
fffe5829
fffe5829
fffe5829
fffe5829
fffe5829
fffe5829
fffe5829
fffe5829
fffe5829
fffe5829
fffe5829
fffe5829
fffe5829
fffe5829
fffe5829
fffe5829
fffe5829
fffe5829
fffe5829
fffe5829
fffe5829
fffe5829
fffe5829
fffe5829
fffe5829
fffe5829
fffe5829
fffe5829
fffc7f30
fffc7f30
fffc7f30
fffc7f30
fffc7f30
fffc7f30
fffc7f30
fffc7f30
fffc7f30
fffc7f30
fffc7f30
fffc7f30
fffc7f30
fffc7f30
fffc7f30
fffc7f30
fffc7f30
fffc7f30
fffc7f30
fffc7f30
fffc7f30
fffc7f30
fffc7f30
fffc7f30
fffc7f30
fffc7f30
fffc7f30
fffc7f30
fffc7f30
fffc7f30
fffc7f30
fffc7f30
fffc7f30
fffc7f30
fffc7f30
fffc7f30
fffc7f30
fffc7f30
fffc7f30
fffc7f30
fffc7f30
fffc7f30
fffc7f30
fffc7f30
fffc7f30
fffc7f30
fffc7f30
fffc7f30
fffc7f30
fffc7f30
fffc7f30
fffc7f30
fffc7f30
fffc7f30
fffc7f30
fffc7f30
fffc7f30
fffc7f30
fffc7f30
fffc7f30
fffc7f30
fffc7f30
fffc7f30
fffc7f30
fffc7f30
fffc7f30
fffc7f30
fffc7f30
fffc7f30
fffc7f30
fffc7f30
fffc7f30
fffc7f30
fffc7f30
fffc7f30
fffc7f30
fffc7f30
fffc7f30
fffc7f30
fffc7f30
fffc7f30
fffc7f30
fffc7f30
fffc7f30
fffc7f30
fffc7f30
fffc7f30
fffc7f30
fffc7f30
fffc7f30
fffc7f30
fffc7f30
fffc7f30
fffc7f30
fffc7f30
fffc7f30
fffc7f30
fffc7f30
fffc7f30
fffc7f30
fffc7f30
fffc7f30
fffc7f30
fffc7f30
fffc7f30
fffc7f30
fffc7f30
fffc7f30
fffc7f30
fffc7f30
fffc7f30
fffc7f30
fffc7f30
fffc7f30
fffc7f30
fffc7f30
fffc7f30
fffc7f30
fffc7f30
fffc7f30
fffc7f30
fffc7f30
fffc7f30
fffc7f30
fffc7f30
fffc7f30
fffc7f30
fffc7f30
fffc7f30
fffc7f30
fffc7f30
fffc7f30
fffc7f30
fffc7f30
fffc7f30
fffc7f30
fffc7f30
fffc7f30
fffc7f30
fffc7f30
fffc7f30
fffc7f30
fffc7f30
fffc7f30
fffc7f30
fffc7f30
fffc7f30
fffc7f30
fffc7f30
fffc7f30
fffc7f30
fffc7f30
fffc7f30
fffc7f30
fffc7f30
fffc7f30
fffc7f30
fffc7f30
fffc7f30
fffc7f30
fffc7f30
fffc7f30
fffc7f30
fffc7f30
fffc7f30
fffc7f30
fffc7f30
fffc7f30
fffc7f30
fffc7f30
fffc7f30
fffc7f30
fffc7f30
fffc7f30
fffc7f30
fffc7f30
fffc7f30
fffc7f30
fffc7f30
fffc7f30
fffc7f30
fffc7f30
fffc7f30
fffc7f30
fffc7f30
fffc7f30
fffc7f30
fffc7f30
fffc7f30
fffc7f30
fffc7f30
fffc7f30
fffc7f30
fffc7f30
fffc7f30
fffc7f30
fffe1db3
fffe1db3
fffe1db3
fffe1db3
fffe1db3
fffe1db3
fffe1db3
fffe1db3
fffe1db3
fffe1db3
fffe1db3
fffe1db3
fffe1db3
fffe1db3
fffe1db3
fffe1db3
fffe1db3
fffe1db3
fffe1db3
fffe1db3
fffe1db3
fffe1db3
fffe1db3
fffe1db3
fffe1db3
fffe1db3
fffe1db3
fffe1db3
fffe1db3
fffe1db3
fffe1db3
fffe1db3
fffe1db3
fffe1db3
fffe1db3
fffe1db3
fffe1db3
fffe1db3
fffe1db3
fffe1db3
fffe1db3
fffe1db3
fffe1db3
fffe1db3
fffe1db3
fffe1db3
fffe1db3
fffe1db3
fffe1db3
fffe1db3
fffe1db3
fffe1db3
fffe1db3
fffe1db3
fffe1db3
fffe1db3
fffe1db3
fffe1db3
fffe1db3
fffe1db3
fffe1db3
fffe1db3
fffe1db3
fffe1db3
fffe1db3
fffe1db3
fffe1db3
fffe1db3
fffe1db3
fffe1db3
fffe1db3
fffe1db3
fffe1db3
fffe1db3
fffe1db3
fffe1db3
fffe1db3
fffe1db3
fffe1db3
fffe1db3
fffe1db3
fffe1db3
fffe1db3
fffe1db3
fffe1db3
fffe1db3
fffe1db3
fffe1db3
fffe1db3
fffe1db3
fffe1db3
fffe1db3
fffe1db3
fffe1db3
fffe1db3
fffe1db3
fffe1db3
fffe1db3
fffe1db3
fffe1db3
fffe1db3
fffe1db3
fffe1db3
fffe1db3
fffe1db3
fffe1db3
fffe1db3
fffe1db3
fffe1db3
fffe1db3
fffe1db3
fffe1db3
fffe1db3
fffe1db3
fffe1db3
fffe1db3
fffe1db3
fffe1db3
fffe1db3
fffe1db3
fffe1db3
fffe1db3
fffe1db3
fffe1db3
fffe1db3
fffe1db3
fffe1db3
fffe1db3
fffe1db3
fffe1db3
fffe1db3
fffe1db3
fffe1db3
fffe1db3
fffe1db3
fffe1db3
fffe1db3
fffe1db3
fffe1db3
fffe1db3
fffe1db3
fffe1db3
fffe1db3
fffe1db3
fffe1db3
fffe1db3
fffe1db3
fffe1db3
fffe1db3
fffe1db3
fffe1db3
fffe1db3
fffe1db3
fffe1db3
fffe1db3
fffe1db3
fffe1db3
fffe1db3
fffe1db3
fffe1db3
fffe1db3
fffe1db3
fffe1db3
fffe1db3
fffe1db3
fffe1db3
fffe1db3
fffe1db3
fffe1db3
fffe1db3
fffe1db3
fffe1db3
fffe1db3
fffe1db3
fffe1db3
fffe1db3
fffe1db3
fffe1db3
fffe1db3
fffe1db3
fffe1db3
fffe1db3
fffe1db3
fffe1db3
fffe1db3
fffe1db3
fffe1db3
fffe1db3
fffe1db3
fffe1db3
fffe1db3
fffe1db3
fffe1db3
fffe1db3
fffe1db3
fffe1db3
fffbd10f
fffbd10f
fffbd10f
fffbd10f
fffbd10f
fffbd10f
fffbd10f
fffbd10f
fffbd10f
fffbd10f
fffbd10f
fffbd10f
fffbd10f
fffbd10f
fffbd10f
fffbd10f
fffbd10f
fffbd10f
fffbd10f
fffbd10f
fffbd10f
fffbd10f
fffbd10f
fffbd10f
fffbd10f
fffbd10f
fffbd10f
fffbd10f
fffbd10f
fffbd10f
fffbd10f
fffbd10f
fffbd10f
fffbd10f
fffbd10f
fffbd10f
fffbd10f
fffbd10f
fffbd10f
fffbd10f
fffbd10f
fffbd10f
fffbd10f
fffbd10f
fffbd10f
fffbd10f
fffbd10f
fffbd10f
fffbd10f
fffbd10f
fffbd10f
fffbd10f
fffbd10f
fffbd10f
fffbd10f
fffbd10f
fffbd10f
fffbd10f
fffbd10f
fffbd10f
fffbd10f
fffbd10f
fffbd10f
fffbd10f
fffbd10f
fffbd10f
fffbd10f
fffbd10f
fffbd10f
fffbd10f
fffbd10f
fffbd10f
fffbd10f
fffbd10f
fffbd10f
fffbd10f
fffbd10f
fffbd10f
fffbd10f
fffbd10f
fffbd10f
fffbd10f
fffbd10f
fffbd10f
fffbd10f
fffbd10f
fffbd10f
fffbd10f
fffbd10f
fffbd10f
fffbd10f
fffbd10f
fffbd10f
fffbd10f
fffbd10f
fffbd10f
fffbd10f
fffbd10f
fffbd10f
fffbd10f
fffbd10f
fffbd10f
fffbd10f
fffbd10f
fffbd10f
fffbd10f
fffbd10f
fffbd10f
fffbd10f
fffbd10f
fffbd10f
fffbd10f
fffbd10f
fffbd10f
fffbd10f
fffbd10f
fffbd10f
fffbd10f
fffbd10f
fffbd10f
fffbd10f
fffbd10f
fffbd10f
fffbd10f
fffbd10f
fffbd10f
fffbd10f
fffbd10f
fffbd10f
fffbd10f
fffbd10f
fffbd10f
fffbd10f
fffbd10f
fffbd10f
fffbd10f
fffbd10f
fffbd10f
fffbd10f
fffbd10f
fffbd10f
fffbd10f
fffbd10f
fffbd10f
fffbd10f
fffbd10f
fffbd10f
fffbd10f
fffbd10f
fffbd10f
fffbd10f
fffbd10f
fffbd10f
fffbd10f
fffbd10f
fffbd10f
fffbd10f
fffbd10f
fffbd10f
fffbd10f
fffbd10f
fffbd10f
fffbd10f
fffbd10f
fffbd10f
fffbd10f
fffbd10f
fffbd10f
fffbd10f
fffbd10f
fffbd10f
fffbd10f
fffbd10f
fffbd10f
fffbd10f
fffbd10f
fffbd10f
fffbd10f
fffbd10f
fffbd10f
fffbd10f
fffbd10f
fffbd10f
fffbd10f
fffbd10f
fffbd10f
fffbd10f
fffbd10f
fffbd10f
fffbd10f
fffbd10f
fffbd10f
fffbd10f
fffbd10f
fffbd10f
fffbd10f
fff9bffb
fff9bffb
fff9bffb
fff9bffb
fff9bffb
fff9bffb
fff9bffb
fff9bffb
fff9bffb
fff9bffb
fff9bffb
fff9bffb
fff9bffb
fff9bffb
fff9bffb
fff9bffb
fff9bffb
fff9bffb
fff9bffb
fff9bffb
fff9bffb
fff9bffb
fff9bffb
fff9bffb
fff9bffb
fff9bffb
fff9bffb
fff9bffb
fff9bffb
fff9bffb
fff9bffb
fff9bffb
fff9bffb
fff9bffb
fff9bffb
fff9bffb
fff9bffb
fff9bffb
fff9bffb
fff9bffb
fff9bffb
fff9bffb
fff9bffb
fff9bffb
fff9bffb
fff9bffb
fff9bffb
fff9bffb
fff9bffb
fff9bffb
fff9bffb
fff9bffb
fff9bffb
fff9bffb
fff9bffb
fff9bffb
fff9bffb
fff9bffb
fff9bffb
fff9bffb
fff9bffb
fff9bffb
fff9bffb
fff9bffb
fff9bffb
fff9bffb
fff9bffb
fff9bffb
fff9bffb
fff9bffb
fff9bffb
fff9bffb
fff9bffb
fff9bffb
fff9bffb
fff9bffb
fff9bffb
fff9bffb
fff9bffb
fff9bffb
fff9bffb
fff9bffb
fff9bffb
fff9bffb
fff9bffb
fff9bffb
fff9bffb
fff9bffb
fff9bffb
fff9bffb
fff9bffb
fff9bffb
fff9bffb
fff9bffb
fff9bffb
fff9bffb
fff9bffb
fff9bffb
fff9bffb
fff9bffb
fff9bffb
fff9bffb
fff9bffb
fff9bffb
fff9bffb
fff9bffb
fff9bffb
fff9bffb
fff9bffb
fff9bffb
fff9bffb
fff9bffb
fff9bffb
fff9bffb
fff9bffb
fff9bffb
fff9bffb
fff9bffb
fff9bffb
fff9bffb
fff9bffb
fff9bffb
fff9bffb
fff9bffb
fff9bffb
fff9bffb
fff9bffb
fff9bffb
fff9bffb
fff9bffb
fff9bffb
fff9bffb
fff9bffb
fff9bffb
fff9bffb
fff9bffb
fff9bffb
fff9bffb
fff9bffb
fff9bffb
fff9bffb
fff9bffb
fff9bffb
fff9bffb
fff9bffb
fff9bffb
fff9bffb
fff9bffb
fff9bffb
fff9bffb
fff9bffb
fff9bffb
fff9bffb
fff9bffb
fff9bffb
fff9bffb
fff9bffb
fff9bffb
fff9bffb
fff9bffb
fff9bffb
fff9bffb
fff9bffb
fff9bffb
fff9bffb
fff9bffb
fff9bffb
fff9bffb
fff9bffb
fff9bffb
fff9bffb
fff9bffb
fff9bffb
fff9bffb
fff9bffb
fff9bffb
fff9bffb
fff9bffb
fff9bffb
fff9bffb
fff9bffb
fff9bffb
fff9bffb
fff9bffb
fff9bffb
fff9bffb
fff9bffb
fff9bffb
fff9bffb
fff9bffb
fff9bffb
fff9bffb
fff9bffb
fff9bffb
fff9bffb
fff9bffb
fff7b6c8
fff7b6c8
fff7b6c8
fff7b6c8
fff7b6c8
fff7b6c8
fff7b6c8
fff7b6c8
fff7b6c8
fff7b6c8
fff7b6c8
fff7b6c8
fff7b6c8
fff7b6c8
fff7b6c8
fff7b6c8
fff7b6c8
fff7b6c8
fff7b6c8
fff7b6c8
fff7b6c8
fff7b6c8
fff7b6c8
fff7b6c8
fff7b6c8
fff7b6c8
fff7b6c8
fff7b6c8
fff7b6c8
fff7b6c8
fff7b6c8
fff7b6c8
fff7b6c8
fff7b6c8
fff7b6c8
fff7b6c8
fff7b6c8
fff7b6c8
fff7b6c8
fff7b6c8
fff7b6c8
fff7b6c8
fff7b6c8
fff7b6c8
fff7b6c8
fff7b6c8
fff7b6c8
fff7b6c8
fff7b6c8
fff7b6c8
fff7b6c8
fff7b6c8
fff7b6c8
fff7b6c8
fff7b6c8
fff7b6c8
fff7b6c8
fff7b6c8
fff7b6c8
fff7b6c8
fff7b6c8
fff7b6c8
fff7b6c8
fff7b6c8
fff7b6c8
fff7b6c8
fff7b6c8
fff7b6c8
fff7b6c8
fff7b6c8
fff7b6c8
fff7b6c8
fff7b6c8
fff7b6c8
fff7b6c8
fff7b6c8
fff7b6c8
fff7b6c8
fff7b6c8
fff7b6c8
fff7b6c8
fff7b6c8
fff7b6c8
fff7b6c8
fff7b6c8
fff7b6c8
fff7b6c8
fff7b6c8
fff7b6c8
fff7b6c8
fff7b6c8
fff7b6c8
fff7b6c8
fff7b6c8
fff7b6c8
fff7b6c8
fff7b6c8
fff7b6c8
fff7b6c8
fff7b6c8
fff7b6c8
fff7b6c8
fff7b6c8
fff7b6c8
fff7b6c8
fff7b6c8
fff7b6c8
fff7b6c8
fff7b6c8
fff7b6c8
fff7b6c8
fff7b6c8
fff7b6c8
fff7b6c8
fff7b6c8
fff7b6c8
fff7b6c8
fff7b6c8
fff7b6c8
fff7b6c8
fff7b6c8
fff7b6c8
fff7b6c8
fff7b6c8
fff7b6c8
fff7b6c8
fff7b6c8
fff7b6c8
fff7b6c8
fff7b6c8
fff7b6c8
fff7b6c8
fff7b6c8
fff7b6c8
fff7b6c8
fff7b6c8
fff7b6c8
fff7b6c8
fff7b6c8
fff7b6c8
fff7b6c8
fff7b6c8
fff7b6c8
fff7b6c8
fff7b6c8
fff7b6c8
fff7b6c8
fff7b6c8
fff7b6c8
fff7b6c8
fff7b6c8
fff7b6c8
fff7b6c8
fff7b6c8
fff7b6c8
fff7b6c8
fff7b6c8
fff7b6c8
fff7b6c8
fff7b6c8
fff7b6c8
fff7b6c8
fff7b6c8
fff7b6c8
fff7b6c8
fff7b6c8
fff7b6c8
fff7b6c8
fff7b6c8
fff7b6c8
fff7b6c8
fff7b6c8
fff7b6c8
fff7b6c8
fff7b6c8
fff7b6c8
fff7b6c8
fff7b6c8
fff7b6c8
fff7b6c8
fff7b6c8
fff7b6c8
fff7b6c8
fff7b6c8
fff7b6c8
fff7b6c8
fff7b6c8
fff7b6c8
fff7b6c8
fff7b6c8
fff7b6c8
fff7b6c8
fff7b6c8
fff7b6c8
fff7b6c8
fff7b6c8
fffad259
fffad259
fffad259
fffad259
fffad259
fffad259
fffad259
fffad259
fffad259
fffad259
fffad259
fffad259
fffad259
fffad259
fffad259
fffad259
fffad259
fffad259
fffad259
fffad259
fffad259
fffad259
fffad259
fffad259
fffad259
fffad259
fffad259
fffad259
fffad259
fffad259
fffad259
fffad259
fffad259
fffad259
fffad259
fffad259
fffad259
fffad259
fffad259
fffad259
fffad259
fffad259
fffad259
fffad259
fffad259
fffad259
fffad259
fffad259
fffad259
fffad259
fffad259
fffad259
fffad259
fffad259
fffad259
fffad259
fffad259
fffad259
fffad259
fffad259
fffad259
fffad259
fffad259
fffad259
fffad259
fffad259
fffad259
fffad259
fffad259
fffad259
fffad259
fffad259
fffad259
fffad259
fffad259
fffad259
fffad259
fffad259
fffad259
fffad259
fffad259
fffad259
fffad259
fffad259
fffad259
fffad259
fffad259
fffad259
fffad259
fffad259
fffad259
fffad259
fffad259
fffad259
fffad259
fffad259
fffad259
fffad259
fffad259
fffad259
fffad259
fffad259
fffad259
fffad259
fffad259
fffad259
fffad259
fffad259
fffad259
fffad259
fffad259
fffad259
fffad259
fffad259
fffad259
fffad259
fffad259
fffad259
fffad259
fffad259
fffad259
fffad259
fffad259
fffad259
fffad259
fffad259
fffad259
fffad259
fffad259
fffad259
fffad259
fffad259
fffad259
fffad259
fffad259
fffad259
fffad259
fffad259
fffad259
fffad259
fffad259
fffad259
fffad259
fffad259
fffad259
fffad259
fffad259
fffad259
fffad259
fffad259
fffad259
fffad259
fffad259
fffad259
fffad259
fffad259
fffad259
fffad259
fffad259
fffad259
fffad259
fffad259
fffad259
fffad259
fffad259
fffad259
fffad259
fffad259
fffad259
fffad259
fffad259
fffad259
fffad259
fffad259
fffad259
fffad259
fffad259
fffad259
fffad259
fffad259
fffad259
fffad259
fffad259
fffad259
fffad259
fffad259
fffad259
fffad259
fffad259
fffad259
fffad259
fffad259
fffad259
fffad259
fffad259
fffad259
fff93159
fff93159
fff93159
fff93159
fff93159
fff93159
fff93159
fff93159
fff93159
fff93159
fff93159
fff93159
fff93159
fff93159
fff93159
fff93159
fff93159
fff93159
fff93159
fff93159
fff93159
fff93159
fff93159
fff93159
fff93159
fff93159
fff93159
fff93159
fff93159
fff93159
fff93159
fff93159
fff93159
fff93159
fff93159
fff93159
fff93159
fff93159
fff93159
fff93159
fff93159
fff93159
fff93159
fff93159
fff93159
fff93159
fff93159
fff93159
fff93159
fff93159
fff93159
fff93159
fff93159
fff93159
fff93159
fff93159
fff93159
fff93159
fff93159
fff93159
fff93159
fff93159
fff93159
fff93159
fff93159
fff93159
fff93159
fff93159
fff93159
fff93159
fff93159
fff93159
fff93159
fff93159
fff93159
fff93159
fff93159
fff93159
fff93159
fff93159
fff93159
fff93159
fff93159
fff93159
fff93159
fff93159
fff93159
fff93159
fff93159
fff93159
fff93159
fff93159
fff93159
fff93159
fff93159
fff93159
fff93159
fff93159
fff93159
fff93159
fff93159
fff93159
fff93159
fff93159
fff93159
fff93159
fff93159
fff93159
fff93159
fff93159
fff93159
fff93159
fff93159
fff93159
fff93159
fff93159
fff93159
fff93159
fff93159
fff93159
fff93159
fff93159
fff93159
fff93159
fff93159
fff93159
fff93159
fff93159
fff93159
fff93159
fff93159
fff93159
fff93159
fff93159
fff93159
fff93159
fff93159
fff93159
fff93159
fff93159
fff93159
fff93159
fff93159
fff93159
fff93159
fff93159
fff93159
fff93159
fff93159
fff93159
fff93159
fff93159
fff93159
fff93159
fff93159
fff93159
fff93159
fff93159
fff93159
fff93159
fff93159
fff93159
fff93159
fff93159
fff93159
fff93159
fff93159
fff93159
fff93159
fff93159
fff93159
fff93159
fff93159
fff93159
fff93159
fff93159
fff93159
fff93159
fff93159
fff93159
fff93159
fff93159
fff93159
fff93159
fff93159
fff93159
fff93159
fff93159
fff93159
fff93159
fff93159
fff93159
fff93159
fff93159
fff93159
fff93159
fffd6c8d
fffd6c8d
fffd6c8d
fffd6c8d
fffd6c8d
fffd6c8d
fffd6c8d
fffd6c8d
fffd6c8d
fffd6c8d
fffd6c8d
fffd6c8d
fffd6c8d
fffd6c8d
fffd6c8d
fffd6c8d
fffd6c8d
fffd6c8d
fffd6c8d
fffd6c8d
fffd6c8d
fffd6c8d
fffd6c8d
fffd6c8d
fffd6c8d
fffd6c8d
fffd6c8d
fffd6c8d
fffd6c8d
fffd6c8d
fffd6c8d
fffd6c8d
fffd6c8d
fffd6c8d
fffd6c8d
fffd6c8d
fffd6c8d
fffd6c8d
fffd6c8d
fffd6c8d
fffd6c8d
fffd6c8d
fffd6c8d
fffd6c8d
fffd6c8d
fffd6c8d
fffd6c8d
fffd6c8d
fffd6c8d
fffd6c8d
fffd6c8d
fffd6c8d
fffd6c8d
fffd6c8d
fffd6c8d
fffd6c8d
fffd6c8d
fffd6c8d
fffd6c8d
fffd6c8d
fffd6c8d
fffd6c8d
fffd6c8d
fffd6c8d
fffd6c8d
fffd6c8d
fffd6c8d
fffd6c8d
fffd6c8d
fffd6c8d
fffd6c8d
fffd6c8d
fffd6c8d
fffd6c8d
fffd6c8d
fffd6c8d
fffd6c8d
fffd6c8d
fffd6c8d
fffd6c8d
fffd6c8d
fffd6c8d
fffd6c8d
fffd6c8d
fffd6c8d
fffd6c8d
fffd6c8d
fffd6c8d
fffd6c8d
fffd6c8d
fffd6c8d
fffd6c8d
fffd6c8d
fffd6c8d
fffd6c8d
fffd6c8d
fffd6c8d
fffd6c8d
fffd6c8d
fffd6c8d
fffd6c8d
fffd6c8d
fffd6c8d
fffd6c8d
fffd6c8d
fffd6c8d
fffd6c8d
fffd6c8d
fffd6c8d
fffd6c8d
fffd6c8d
fffd6c8d
fffd6c8d
fffd6c8d
fffd6c8d
fffd6c8d
fffd6c8d
fffd6c8d
fffd6c8d
fffd6c8d
fffd6c8d
fffd6c8d
fffd6c8d
fffd6c8d
fffd6c8d
fffd6c8d
fffd6c8d
fffd6c8d
fffd6c8d
fffd6c8d
fffd6c8d
fffd6c8d
fffd6c8d
fffd6c8d
fffd6c8d
fffd6c8d
fffd6c8d
fffd6c8d
fffd6c8d
fffd6c8d
fffd6c8d
fffd6c8d
fffd6c8d
fffd6c8d
fffd6c8d
fffd6c8d
fffd6c8d
fffd6c8d
fffd6c8d
fffd6c8d
fffd6c8d
fffd6c8d
fffd6c8d
fffd6c8d
fffd6c8d
fffd6c8d
fffd6c8d
fffd6c8d
fffd6c8d
fffd6c8d
fffd6c8d
fffd6c8d
fffd6c8d
fffd6c8d
fffd6c8d
fffd6c8d
fffd6c8d
fffd6c8d
fffd6c8d
fffd6c8d
fffd6c8d
fffd6c8d
fffd6c8d
fffd6c8d
fffd6c8d
fffd6c8d
fffd6c8d
fffd6c8d
fffd6c8d
fffd6c8d
fffd6c8d
fffd6c8d
fffd6c8d
fffd6c8d
fffd6c8d
fffd6c8d
fffd6c8d
fffd6c8d
fffd6c8d
fffd6c8d
fffd6c8d
fffd6c8d
fffd6c8d
fffd6c8d
fffd6c8d
fffd6c8d
fffc0d4d
fffc0d4d
fffc0d4d
fffc0d4d
fffc0d4d
fffc0d4d
fffc0d4d
fffc0d4d
fffc0d4d
fffc0d4d
fffc0d4d
fffc0d4d
fffc0d4d
fffc0d4d
fffc0d4d
fffc0d4d
fffc0d4d
fffc0d4d
fffc0d4d
fffc0d4d
fffc0d4d
fffc0d4d
fffc0d4d
fffc0d4d
fffc0d4d
fffc0d4d
fffc0d4d
fffc0d4d
fffc0d4d
fffc0d4d
fffc0d4d
fffc0d4d
fffc0d4d
fffc0d4d
fffc0d4d
fffc0d4d
fffc0d4d
fffc0d4d
fffc0d4d
fffc0d4d
fffc0d4d
fffc0d4d
fffc0d4d
fffc0d4d
fffc0d4d
fffc0d4d
fffc0d4d
fffc0d4d
fffc0d4d
fffc0d4d
fffc0d4d
fffc0d4d
fffc0d4d
fffc0d4d
fffc0d4d
fffc0d4d
fffc0d4d
fffc0d4d
fffc0d4d
fffc0d4d
fffc0d4d
fffc0d4d
fffc0d4d
fffc0d4d
fffc0d4d
fffc0d4d
fffc0d4d
fffc0d4d
fffc0d4d
fffc0d4d
fffc0d4d
fffc0d4d
fffc0d4d
fffc0d4d
fffc0d4d
fffc0d4d
fffc0d4d
fffc0d4d
fffc0d4d
fffc0d4d
fffc0d4d
fffc0d4d
fffc0d4d
fffc0d4d
fffc0d4d
fffc0d4d
fffc0d4d
fffc0d4d
fffc0d4d
fffc0d4d
fffc0d4d
fffc0d4d
fffc0d4d
fffc0d4d
fffc0d4d
fffc0d4d
fffc0d4d
fffc0d4d
fffc0d4d
fffc0d4d
fffc0d4d
fffc0d4d
fffc0d4d
fffc0d4d
fffc0d4d
fffc0d4d
fffc0d4d
fffc0d4d
fffc0d4d
fffc0d4d
fffc0d4d
fffc0d4d
fffc0d4d
fffc0d4d
fffc0d4d
fffc0d4d
fffc0d4d
fffc0d4d
fffc0d4d
fffc0d4d
fffc0d4d
fffc0d4d
fffc0d4d
fffc0d4d
fffc0d4d
fffc0d4d
fffc0d4d
fffc0d4d
fffc0d4d
fffc0d4d
fffc0d4d
fffc0d4d
fffc0d4d
fffc0d4d
fffc0d4d
fffc0d4d
fffc0d4d
fffc0d4d
fffc0d4d
fffc0d4d
fffc0d4d
fffc0d4d
fffc0d4d
fffc0d4d
fffc0d4d
fffc0d4d
fffc0d4d
fffc0d4d
fffc0d4d
fffc0d4d
fffc0d4d
fffc0d4d
fffc0d4d
fffc0d4d
fffc0d4d
fffc0d4d
fffc0d4d
fffc0d4d
fffc0d4d
fffc0d4d
fffc0d4d
fffc0d4d
fffc0d4d
fffc0d4d
fffc0d4d
fffc0d4d
fffc0d4d
fffc0d4d
fffc0d4d
fffc0d4d
fffc0d4d
fffc0d4d
fffc0d4d
fffc0d4d
fffc0d4d
fffc0d4d
fffc0d4d
fffc0d4d
fffc0d4d
fffc0d4d
fffc0d4d
fffc0d4d
fffc0d4d
fffc0d4d
fffc0d4d
fffc0d4d
fffc0d4d
fffc0d4d
fffc0d4d
fffc0d4d
fffc0d4d
fffc0d4d
fffc0d4d
fffc0d4d
fffc0d4d
fffc0d4d
fff945a0
fff945a0
fff945a0
fff945a0
fff945a0
fff945a0
fff945a0
fff945a0
fff945a0
fff945a0
fff945a0
fff945a0
fff945a0
fff945a0
fff945a0
fff945a0
fff945a0
fff945a0
fff945a0
fff945a0
fff945a0
fff945a0
fff945a0
fff945a0
fff945a0
fff945a0
fff945a0
fff945a0
fff945a0
fff945a0
fff945a0
fff945a0
fff945a0
fff945a0
fff945a0
fff945a0
fff945a0
fff945a0
fff945a0
fff945a0
fff945a0
fff945a0
fff945a0
fff945a0
fff945a0
fff945a0
fff945a0
fff945a0
fff945a0
fff945a0
fff945a0
fff945a0
fff945a0
fff945a0
fff945a0
fff945a0
fff945a0
fff945a0
fff945a0
fff945a0
fff945a0
fff945a0
fff945a0
fff945a0
fff945a0
fff945a0
fff945a0
fff945a0
fff945a0
fff945a0
fff945a0
fff945a0
fff945a0
fff945a0
fff945a0
fff945a0
fff945a0
fff945a0
fff945a0
fff945a0
fff945a0
fff945a0
fff945a0
fff945a0
fff945a0
fff945a0
fff945a0
fff945a0
fff945a0
fff945a0
fff945a0
fff945a0
fff945a0
fff945a0
fff945a0
fff945a0
fff945a0
fff945a0
fff945a0
fff945a0
fff945a0
fff945a0
fff945a0
fff945a0
fff945a0
fff945a0
fff945a0
fff945a0
fff945a0
fff945a0
fff945a0
fff945a0
fff945a0
fff945a0
fff945a0
fff945a0
fff945a0
fff945a0
fff945a0
fff945a0
fff945a0
fff945a0
fff945a0
fff945a0
fff945a0
fff945a0
fff945a0
fff945a0
fff945a0
fff945a0
fff945a0
fff945a0
fff945a0
fff945a0
fff945a0
fff945a0
fff945a0
fff945a0
fff945a0
fff945a0
fff945a0
fff945a0
fff945a0
fff945a0
fff945a0
fff945a0
fff945a0
fff945a0
fff945a0
fff945a0
fff945a0
fff945a0
fff945a0
fff945a0
fff945a0
fff945a0
fff945a0
fff945a0
fff945a0
fff945a0
fff945a0
fff945a0
fff945a0
fff945a0
fff945a0
fff945a0
fff945a0
fff945a0
fff945a0
fff945a0
fff945a0
fff945a0
fff945a0
fff945a0
fff945a0
fff945a0
fff945a0
fff945a0
fff945a0
fff945a0
fff945a0
fff945a0
fff945a0
fff945a0
fff945a0
fff945a0
fff945a0
fff945a0
fff945a0
fff945a0
fff945a0
fff945a0
fff945a0
fff945a0
fff945a0
fff945a0
fffb19f4
fffb19f4
fffb19f4
fffb19f4
fffb19f4
fffb19f4
fffb19f4
fffb19f4
fffb19f4
fffb19f4
fffb19f4
fffb19f4
fffb19f4
fffb19f4
fffb19f4
fffb19f4
fffb19f4
fffb19f4
fffb19f4
fffb19f4
fffb19f4
fffb19f4
fffb19f4
fffb19f4
fffb19f4
fffb19f4
fffb19f4
fffb19f4
fffb19f4
fffb19f4
fffb19f4
fffb19f4
fffb19f4
fffb19f4
fffb19f4
fffb19f4
fffb19f4
fffb19f4
fffb19f4
fffb19f4
fffb19f4
fffb19f4
fffb19f4
fffb19f4
fffb19f4
fffb19f4
fffb19f4
fffb19f4
fffb19f4
fffb19f4
fffb19f4
fffb19f4
fffb19f4
fffb19f4
fffb19f4
fffb19f4
fffb19f4
fffb19f4
fffb19f4
fffb19f4
fffb19f4
fffb19f4
fffb19f4
fffb19f4
fffb19f4
fffb19f4
fffb19f4
fffb19f4
fffb19f4
fffb19f4
fffb19f4
fffb19f4
fffb19f4
fffb19f4
fffb19f4
fffb19f4
fffb19f4
fffb19f4
fffb19f4
fffb19f4
fffb19f4
fffb19f4
fffb19f4
fffb19f4
fffb19f4
fffb19f4
fffb19f4
fffb19f4
fffb19f4
fffb19f4
fffb19f4
fffb19f4
fffb19f4
fffb19f4
fffb19f4
fffb19f4
fffb19f4
fffb19f4
fffb19f4
fffb19f4
fffb19f4
fffb19f4
fffb19f4
fffb19f4
fffb19f4
fffb19f4
fffb19f4
fffb19f4
fffb19f4
fffb19f4
fffb19f4
fffb19f4
fffb19f4
fffb19f4
fffb19f4
fffb19f4
fffb19f4
fffb19f4
fffb19f4
fffb19f4
fffb19f4
fffb19f4
fffb19f4
fffb19f4
fffb19f4
fffb19f4
fffb19f4
fffb19f4
fffb19f4
fffb19f4
fffb19f4
fffb19f4
fffb19f4
fffb19f4
fffb19f4
fffb19f4
fffb19f4
fffb19f4
fffb19f4
fffb19f4
fffb19f4
fffb19f4
fffb19f4
fffb19f4
fffb19f4
fffb19f4
fffb19f4
fffb19f4
fffb19f4
fffb19f4
fffb19f4
fffb19f4
fffb19f4
fffb19f4
fffb19f4
fffb19f4
fffb19f4
fffb19f4
fffb19f4
fffb19f4
fffb19f4
fffb19f4
fffb19f4
fffb19f4
fffb19f4
fffb19f4
fffb19f4
fffb19f4
fffb19f4
fffb19f4
fffb19f4
fffb19f4
fffb19f4
fffb19f4
fffb19f4
fffb19f4
fffb19f4
fffb19f4
fffb19f4
fffb19f4
fffb19f4
fffb19f4
fffb19f4
fffb19f4
fffb19f4
fffb19f4
fffb19f4
fffb19f4
fffb19f4
fffb19f4
fffb19f4
fffb19f4
fffb19f4
fffb19f4
fffb19f4
fffb19f4
ffff6d76
ffff6d76
ffff6d76
ffff6d76
ffff6d76
ffff6d76
ffff6d76
ffff6d76
ffff6d76
ffff6d76
ffff6d76
ffff6d76
ffff6d76
ffff6d76
ffff6d76
ffff6d76
ffff6d76
ffff6d76
ffff6d76
ffff6d76
ffff6d76
ffff6d76
ffff6d76
ffff6d76
ffff6d76
ffff6d76
ffff6d76
ffff6d76
ffff6d76
ffff6d76
ffff6d76
ffff6d76
ffff6d76
ffff6d76
ffff6d76
ffff6d76
ffff6d76
ffff6d76
ffff6d76
ffff6d76
ffff6d76
ffff6d76
ffff6d76
ffff6d76
ffff6d76
ffff6d76
ffff6d76
ffff6d76
ffff6d76
ffff6d76
ffff6d76
ffff6d76
ffff6d76
ffff6d76
ffff6d76
ffff6d76
ffff6d76
ffff6d76
ffff6d76
ffff6d76
ffff6d76
ffff6d76
ffff6d76
ffff6d76
ffff6d76
ffff6d76
ffff6d76
ffff6d76
ffff6d76
ffff6d76
ffff6d76
ffff6d76
ffff6d76
ffff6d76
ffff6d76
ffff6d76
ffff6d76
ffff6d76
ffff6d76
ffff6d76
ffff6d76
ffff6d76
ffff6d76
ffff6d76
ffff6d76
ffff6d76
ffff6d76
ffff6d76
ffff6d76
ffff6d76
ffff6d76
ffff6d76
ffff6d76
ffff6d76
ffff6d76
ffff6d76
ffff6d76
ffff6d76
ffff6d76
ffff6d76
ffff6d76
ffff6d76
ffff6d76
ffff6d76
ffff6d76
ffff6d76
ffff6d76
ffff6d76
ffff6d76
ffff6d76
ffff6d76
ffff6d76
ffff6d76
ffff6d76
ffff6d76
ffff6d76
ffff6d76
ffff6d76
ffff6d76
ffff6d76
ffff6d76
ffff6d76
ffff6d76
ffff6d76
ffff6d76
ffff6d76
ffff6d76
ffff6d76
ffff6d76
ffff6d76
ffff6d76
ffff6d76
ffff6d76
ffff6d76
ffff6d76
ffff6d76
ffff6d76
ffff6d76
ffff6d76
ffff6d76
ffff6d76
ffff6d76
ffff6d76
ffff6d76
ffff6d76
ffff6d76
ffff6d76
ffff6d76
ffff6d76
ffff6d76
ffff6d76
ffff6d76
ffff6d76
ffff6d76
ffff6d76
ffff6d76
ffff6d76
ffff6d76
ffff6d76
ffff6d76
ffff6d76
ffff6d76
ffff6d76
ffff6d76
ffff6d76
ffff6d76
ffff6d76
ffff6d76
ffff6d76
ffff6d76
ffff6d76
ffff6d76
ffff6d76
ffff6d76
ffff6d76
ffff6d76
ffff6d76
ffff6d76
ffff6d76
ffff6d76
ffff6d76
ffff6d76
ffff6d76
ffff6d76
ffff6d76
ffff6d76
ffff6d76
ffff6d76
ffff6d76
ffff6d76
ffff6d76
ffff6d76
ffff6d76
ffff6d76
ffff6d76
ffff6d76
fff85f1b
fff85f1b
fff85f1b
fff85f1b
fff85f1b
fff85f1b
fff85f1b
fff85f1b
fff85f1b
fff85f1b
fff85f1b
fff85f1b
fff85f1b
fff85f1b
fff85f1b
fff85f1b
fff85f1b
fff85f1b
fff85f1b
fff85f1b
fff85f1b
fff85f1b
fff85f1b
fff85f1b
fff85f1b
fff85f1b
fff85f1b
fff85f1b
fff85f1b
fff85f1b
fff85f1b
fff85f1b
fff85f1b
fff85f1b
fff85f1b
fff85f1b
fff85f1b
fff85f1b
fff85f1b
fff85f1b
fff85f1b
fff85f1b
fff85f1b
fff85f1b
fff85f1b
fff85f1b
fff85f1b
fff85f1b
fff85f1b
fff85f1b
fff85f1b
fff85f1b
fff85f1b
fff85f1b
fff85f1b
fff85f1b
fff85f1b
fff85f1b
fff85f1b
fff85f1b
fff85f1b
fff85f1b
fff85f1b
fff85f1b
fff85f1b
fff85f1b
fff85f1b
fff85f1b
fff85f1b
fff85f1b
fff85f1b
fff85f1b
fff85f1b
fff85f1b
fff85f1b
fff85f1b
fff85f1b
fff85f1b
fff85f1b
fff85f1b
fff85f1b
fff85f1b
fff85f1b
fff85f1b
fff85f1b
fff85f1b
fff85f1b
fff85f1b
fff85f1b
fff85f1b
fff85f1b
fff85f1b
fff85f1b
fff85f1b
fff85f1b
fff85f1b
fff85f1b
fff85f1b
fff85f1b
fff85f1b
fff85f1b
fff85f1b
fff85f1b
fff85f1b
fff85f1b
fff85f1b
fff85f1b
fff85f1b
fff85f1b
fff85f1b
fff85f1b
fff85f1b
fff85f1b
fff85f1b
fff85f1b
fff85f1b
fff85f1b
fff85f1b
fff85f1b
fff85f1b
fff85f1b
fff85f1b
fff85f1b
fff85f1b
fff85f1b
fff85f1b
fff85f1b
fff85f1b
fff85f1b
fff85f1b
fff85f1b
fff85f1b
fff85f1b
fff85f1b
fff85f1b
fff85f1b
fff85f1b
fff85f1b
fff85f1b
fff85f1b
fff85f1b
fff85f1b
fff85f1b
fff85f1b
fff85f1b
fff85f1b
fff85f1b
fff85f1b
fff85f1b
fff85f1b
fff85f1b
fff85f1b
fff85f1b
fff85f1b
fff85f1b
fff85f1b
fff85f1b
fff85f1b
fff85f1b
fff85f1b
fff85f1b
fff85f1b
fff85f1b
fff85f1b
fff85f1b
fff85f1b
fff85f1b
fff85f1b
fff85f1b
fff85f1b
fff85f1b
fff85f1b
fff85f1b
fff85f1b
fff85f1b
fff85f1b
fff85f1b
fff85f1b
fff85f1b
fff85f1b
fff85f1b
fff85f1b
fff85f1b
fff85f1b
fff85f1b
fff85f1b
fff85f1b
fff85f1b
fff85f1b
fff85f1b
fff85f1b
fff85f1b
fff85f1b
fff85f1b
fff85f1b
fff85f1b
fffbd66e
fffbd66e
fffbd66e
fffbd66e
fffbd66e
fffbd66e
fffbd66e
fffbd66e
fffbd66e
fffbd66e
fffbd66e
fffbd66e
fffbd66e
fffbd66e
fffbd66e
fffbd66e
fffbd66e
fffbd66e
fffbd66e
fffbd66e
fffbd66e
fffbd66e
fffbd66e
fffbd66e
fffbd66e
fffbd66e
fffbd66e
fffbd66e
fffbd66e
fffbd66e
fffbd66e
fffbd66e
fffbd66e
fffbd66e
fffbd66e
fffbd66e
fffbd66e
fffbd66e
fffbd66e
fffbd66e
fffbd66e
fffbd66e
fffbd66e
fffbd66e
fffbd66e
fffbd66e
fffbd66e
fffbd66e
fffbd66e
fffbd66e
fffbd66e
fffbd66e
fffbd66e
fffbd66e
fffbd66e
fffbd66e
fffbd66e
fffbd66e
fffbd66e
fffbd66e
fffbd66e
fffbd66e
fffbd66e
fffbd66e
fffbd66e
fffbd66e
fffbd66e
fffbd66e
fffbd66e
fffbd66e
fffbd66e
fffbd66e
fffbd66e
fffbd66e
fffbd66e
fffbd66e
fffbd66e
fffbd66e
fffbd66e
fffbd66e
fffbd66e
fffbd66e
fffbd66e
fffbd66e
fffbd66e
fffbd66e
fffbd66e
fffbd66e
fffbd66e
fffbd66e
fffbd66e
fffbd66e
fffbd66e
fffbd66e
fffbd66e
fffbd66e
fffbd66e
fffbd66e
fffbd66e
fffbd66e
fffbd66e
fffbd66e
fffbd66e
fffbd66e
fffbd66e
fffbd66e
fffbd66e
fffbd66e
fffbd66e
fffbd66e
fffbd66e
fffbd66e
fffbd66e
fffbd66e
fffbd66e
fffbd66e
fffbd66e
fffbd66e
fffbd66e
fffbd66e
fffbd66e
fffbd66e
fffbd66e
fffbd66e
fffbd66e
fffbd66e
fffbd66e
fffbd66e
fffbd66e
fffbd66e
fffbd66e
fffbd66e
fffbd66e
fffbd66e
fffbd66e
fffbd66e
fffbd66e
fffbd66e
fffbd66e
fffbd66e
fffbd66e
fffbd66e
fffbd66e
fffbd66e
fffbd66e
fffbd66e
fffbd66e
fffbd66e
fffbd66e
fffbd66e
fffbd66e
fffbd66e
fffbd66e
fffbd66e
fffbd66e
fffbd66e
fffbd66e
fffbd66e
fffbd66e
fffbd66e
fffbd66e
fffbd66e
fffbd66e
fffbd66e
fffbd66e
fffbd66e
fffbd66e
fffbd66e
fffbd66e
fffbd66e
fffbd66e
fffbd66e
fffbd66e
fffbd66e
fffbd66e
fffbd66e
fffbd66e
fffbd66e
fffbd66e
fffbd66e
fffbd66e
fffbd66e
fffbd66e
fffbd66e
fffbd66e
fffbd66e
fffbd66e
fffbd66e
fffbd66e
fffbd66e
fffbd66e
fffbd66e
fffbd66e
fffbd66e
fffbd66e
fffbd66e
fff9d0a0
fff9d0a0
fff9d0a0
fff9d0a0
fff9d0a0
fff9d0a0
fff9d0a0
fff9d0a0
fff9d0a0
fff9d0a0
fff9d0a0
fff9d0a0
fff9d0a0
fff9d0a0
fff9d0a0
fff9d0a0
fff9d0a0
fff9d0a0
fff9d0a0
fff9d0a0
fff9d0a0
fff9d0a0
fff9d0a0
fff9d0a0
fff9d0a0
fff9d0a0
fff9d0a0
fff9d0a0
fff9d0a0
fff9d0a0
fff9d0a0
fff9d0a0
fff9d0a0
fff9d0a0
fff9d0a0
fff9d0a0
fff9d0a0
fff9d0a0
fff9d0a0
fff9d0a0
fff9d0a0
fff9d0a0
fff9d0a0
fff9d0a0
fff9d0a0
fff9d0a0
fff9d0a0
fff9d0a0
fff9d0a0
fff9d0a0
fff9d0a0
fff9d0a0
fff9d0a0
fff9d0a0
fff9d0a0
fff9d0a0
fff9d0a0
fff9d0a0
fff9d0a0
fff9d0a0
fff9d0a0
fff9d0a0
fff9d0a0
fff9d0a0
fff9d0a0
fff9d0a0
fff9d0a0
fff9d0a0
fff9d0a0
fff9d0a0
fff9d0a0
fff9d0a0
fff9d0a0
fff9d0a0
fff9d0a0
fff9d0a0
fff9d0a0
fff9d0a0
fff9d0a0
fff9d0a0
fff9d0a0
fff9d0a0
fff9d0a0
fff9d0a0
fff9d0a0
fff9d0a0
fff9d0a0
fff9d0a0
fff9d0a0
fff9d0a0
fff9d0a0
fff9d0a0
fff9d0a0
fff9d0a0
fff9d0a0
fff9d0a0
fff9d0a0
fff9d0a0
fff9d0a0
fff9d0a0
fff9d0a0
fff9d0a0
fff9d0a0
fff9d0a0
fff9d0a0
fff9d0a0
fff9d0a0
fff9d0a0
fff9d0a0
fff9d0a0
fff9d0a0
fff9d0a0
fff9d0a0
fff9d0a0
fff9d0a0
fff9d0a0
fff9d0a0
fff9d0a0
fff9d0a0
fff9d0a0
fff9d0a0
fff9d0a0
fff9d0a0
fff9d0a0
fff9d0a0
fff9d0a0
fff9d0a0
fff9d0a0
fff9d0a0
fff9d0a0
fff9d0a0
fff9d0a0
fff9d0a0
fff9d0a0
fff9d0a0
fff9d0a0
fff9d0a0
fff9d0a0
fff9d0a0
fff9d0a0
fff9d0a0
fff9d0a0
fff9d0a0
fff9d0a0
fff9d0a0
fff9d0a0
fff9d0a0
fff9d0a0
fff9d0a0
fff9d0a0
fff9d0a0
fff9d0a0
fff9d0a0
fff9d0a0
fff9d0a0
fff9d0a0
fff9d0a0
fff9d0a0
fff9d0a0
fff9d0a0
fff9d0a0
fff9d0a0
fff9d0a0
fff9d0a0
fff9d0a0
fff9d0a0
fff9d0a0
fff9d0a0
fff9d0a0
fff9d0a0
fff9d0a0
fff9d0a0
fff9d0a0
fff9d0a0
fff9d0a0
fff9d0a0
fff9d0a0
fff9d0a0
fff9d0a0
fff9d0a0
fff9d0a0
fff9d0a0
fff9d0a0
fff9d0a0
fff9d0a0
fff9d0a0
fff9d0a0
fff9d0a0
fff9d0a0
fff9d0a0
fff9d0a0
fff9d0a0
fff9d0a0
fff9d0a0
fff9d0a0
fff9d0a0
fffbef16
fffbef16
fffbef16
fffbef16
fffbef16
fffbef16
fffbef16
fffbef16
fffbef16
fffbef16
fffbef16
fffbef16
fffbef16
fffbef16
fffbef16
fffbef16
fffbef16
fffbef16
fffbef16
fffbef16
fffbef16
fffbef16
fffbef16
fffbef16
fffbef16
fffbef16
fffbef16
fffbef16
fffbef16
fffbef16
fffbef16
fffbef16
fffbef16
fffbef16
fffbef16
fffbef16
fffbef16
fffbef16
fffbef16
fffbef16
fffbef16
fffbef16
fffbef16
fffbef16
fffbef16
fffbef16
fffbef16
fffbef16
fffbef16
fffbef16
fffbef16
fffbef16
fffbef16
fffbef16
fffbef16
fffbef16
fffbef16
fffbef16
fffbef16
fffbef16
fffbef16
fffbef16
fffbef16
fffbef16
fffbef16
fffbef16
fffbef16
fffbef16
fffbef16
fffbef16
fffbef16
fffbef16
fffbef16
fffbef16
fffbef16
fffbef16
fffbef16
fffbef16
fffbef16
fffbef16
fffbef16
fffbef16
fffbef16
fffbef16
fffbef16
fffbef16
fffbef16
fffbef16
fffbef16
fffbef16
fffbef16
fffbef16
fffbef16
fffbef16
fffbef16
fffbef16
fffbef16
fffbef16
fffbef16
fffbef16
fffbef16
fffbef16
fffbef16
fffbef16
fffbef16
fffbef16
fffbef16
fffbef16
fffbef16
fffbef16
fffbef16
fffbef16
fffbef16
fffbef16
fffbef16
fffbef16
fffbef16
fffbef16
fffbef16
fffbef16
fffbef16
fffbef16
fffbef16
fffbef16
fffbef16
fffbef16
fffbef16
fffbef16
fffbef16
fffbef16
fffbef16
fffbef16
fffbef16
fffbef16
fffbef16
fffbef16
fffbef16
fffbef16
fffbef16
fffbef16
fffbef16
fffbef16
fffbef16
fffbef16
fffbef16
fffbef16
fffbef16
fffbef16
fffbef16
fffbef16
fffbef16
fffbef16
fffbef16
fffbef16
fffbef16
fffbef16
fffbef16
fffbef16
fffbef16
fffbef16
fffbef16
fffbef16
fffbef16
fffbef16
fffbef16
fffbef16
fffbef16
fffbef16
fffbef16
fffbef16
fffbef16
fffbef16
fffbef16
fffbef16
fffbef16
fffbef16
fffbef16
fffbef16
fffbef16
fffbef16
fffbef16
fffbef16
fffbef16
fffbef16
fffbef16
fffbef16
fffbef16
fffbef16
fffbef16
fffbef16
fffbef16
fffbef16
fffbef16
fffbef16
fffbef16
fffbef16
fffbce17
fffbce17
fffbce17
fffbce17
fffbce17
fffbce17
fffbce17
fffbce17
fffbce17
fffbce17
fffbce17
fffbce17
fffbce17
fffbce17
fffbce17
fffbce17
fffbce17
fffbce17
fffbce17
fffbce17
fffbce17
fffbce17
fffbce17
fffbce17
fffbce17
fffbce17
fffbce17
fffbce17
fffbce17
fffbce17
fffbce17
fffbce17
fffbce17
fffbce17
fffbce17
fffbce17
fffbce17
fffbce17
fffbce17
fffbce17
fffbce17
fffbce17
fffbce17
fffbce17
fffbce17
fffbce17
fffbce17
fffbce17
fffbce17
fffbce17
fffbce17
fffbce17
fffbce17
fffbce17
fffbce17
fffbce17
fffbce17
fffbce17
fffbce17
fffbce17
fffbce17
fffbce17
fffbce17
fffbce17
fffbce17
fffbce17
fffbce17
fffbce17
fffbce17
fffbce17
fffbce17
fffbce17
fffbce17
fffbce17
fffbce17
fffbce17
fffbce17
fffbce17
fffbce17
fffbce17
fffbce17
fffbce17
fffbce17
fffbce17
fffbce17
fffbce17
fffbce17
fffbce17
fffbce17
fffbce17
fffbce17
fffbce17
fffbce17
fffbce17
fffbce17
fffbce17
fffbce17
fffbce17
fffbce17
fffbce17
fffbce17
fffbce17
fffbce17
fffbce17
fffbce17
fffbce17
fffbce17
fffbce17
fffbce17
fffbce17
fffbce17
fffbce17
fffbce17
fffbce17
fffbce17
fffbce17
fffbce17
fffbce17
fffbce17
fffbce17
fffbce17
fffbce17
fffbce17
fffbce17
fffbce17
fffbce17
fffbce17
fffbce17
fffbce17
fffbce17
fffbce17
fffbce17
fffbce17
fffbce17
fffbce17
fffbce17
fffbce17
fffbce17
fffbce17
fffbce17
fffbce17
fffbce17
fffbce17
fffbce17
fffbce17
fffbce17
fffbce17
fffbce17
fffbce17
fffbce17
fffbce17
fffbce17
fffbce17
fffbce17
fffbce17
fffbce17
fffbce17
fffbce17
fffbce17
fffbce17
fffbce17
fffbce17
fffbce17
fffbce17
fffbce17
fffbce17
fffbce17
fffbce17
fffbce17
fffbce17
fffbce17
fffbce17
fffbce17
fffbce17
fffbce17
fffbce17
fffbce17
fffbce17
fffbce17
fffbce17
fffbce17
fffbce17
fffbce17
fffbce17
fffbce17
fffbce17
fffbce17
fffbce17
fffbce17
fffbce17
fffbce17
fffbce17
fffbce17
fffbce17
fffbce17
fffbce17
fffbdab2
fffbdab2
fffbdab2
fffbdab2
fffbdab2
fffbdab2
fffbdab2
fffbdab2
fffbdab2
fffbdab2
fffbdab2
fffbdab2
fffbdab2
fffbdab2
fffbdab2
fffbdab2
fffbdab2
fffbdab2
fffbdab2
fffbdab2
fffbdab2
fffbdab2
fffbdab2
fffbdab2
fffbdab2
fffbdab2
fffbdab2
fffbdab2
fffbdab2
fffbdab2
fffbdab2
fffbdab2
fffbdab2
fffbdab2
fffbdab2
fffbdab2
fffbdab2
fffbdab2
fffbdab2
fffbdab2
fffbdab2
fffbdab2
fffbdab2
fffbdab2
fffbdab2
fffbdab2
fffbdab2
fffbdab2
fffbdab2
fffbdab2
fffbdab2
fffbdab2
fffbdab2
fffbdab2
fffbdab2
fffbdab2
fffbdab2
fffbdab2
fffbdab2
fffbdab2
fffbdab2
fffbdab2
fffbdab2
fffbdab2
fffbdab2
fffbdab2
fffbdab2
fffbdab2
fffbdab2
fffbdab2
fffbdab2
fffbdab2
fffbdab2
fffbdab2
fffbdab2
fffbdab2
fffbdab2
fffbdab2
fffbdab2
fffbdab2
fffbdab2
fffbdab2
fffbdab2
fffbdab2
fffbdab2
fffbdab2
fffbdab2
fffbdab2
fffbdab2
fffbdab2
fffbdab2
fffbdab2
fffbdab2
fffbdab2
fffbdab2
fffbdab2
fffbdab2
fffbdab2
fffbdab2
fffbdab2
fffbdab2
fffbdab2
fffbdab2
fffbdab2
fffbdab2
fffbdab2
fffbdab2
fffbdab2
fffbdab2
fffbdab2
fffbdab2
fffbdab2
fffbdab2
fffbdab2
fffbdab2
fffbdab2
fffbdab2
fffbdab2
fffbdab2
fffbdab2
fffbdab2
fffbdab2
fffbdab2
fffbdab2
fffbdab2
fffbdab2
fffbdab2
fffbdab2
fffbdab2
fffbdab2
fffbdab2
fffbdab2
fffbdab2
fffbdab2
fffbdab2
fffbdab2
fffbdab2
fffbdab2
fffbdab2
fffbdab2
fffbdab2
fffbdab2
fffbdab2
fffbdab2
fffbdab2
fffbdab2
fffbdab2
fffbdab2
fffbdab2
fffbdab2
fffbdab2
fffbdab2
fffbdab2
fffbdab2
fffbdab2
fffbdab2
fffbdab2
fffbdab2
fffbdab2
fffbdab2
fffbdab2
fffbdab2
fffbdab2
fffbdab2
fffbdab2
fffbdab2
fffbdab2
fffbdab2
fffbdab2
fffbdab2
fffbdab2
fffbdab2
fffbdab2
fffbdab2
fffbdab2
fffbdab2
fffbdab2
fffbdab2
fffbdab2
fffbdab2
fffbdab2
fffbdab2
fffbdab2
fffbdab2
fffbdab2
fffbdab2
fffbdab2
fffbdab2
fffbdab2
fffbdab2
fffbdab2
fffbdab2
fffbdab2
fffbdab2
fffbdab2
fffbdab2
fffc472b
fffc472b
fffc472b
fffc472b
fffc472b
fffc472b
fffc472b
fffc472b
fffc472b
fffc472b
fffc472b
fffc472b
fffc472b
fffc472b
fffc472b
fffc472b
fffc472b
fffc472b
fffc472b
fffc472b
fffc472b
fffc472b
fffc472b
fffc472b
fffc472b
fffc472b
fffc472b
fffc472b
fffc472b
fffc472b
fffc472b
fffc472b
fffc472b
fffc472b
fffc472b
fffc472b
fffc472b
fffc472b
fffc472b
fffc472b
fffc472b
fffc472b
fffc472b
fffc472b
fffc472b
fffc472b
fffc472b
fffc472b
fffc472b
fffc472b
fffc472b
fffc472b
fffc472b
fffc472b
fffc472b
fffc472b
fffc472b
fffc472b
fffc472b
fffc472b
fffc472b
fffc472b
fffc472b
fffc472b
fffc472b
fffc472b
fffc472b
fffc472b
fffc472b
fffc472b
fffc472b
fffc472b
fffc472b
fffc472b
fffc472b
fffc472b
fffc472b
fffc472b
fffc472b
fffc472b
fffc472b
fffc472b
fffc472b
fffc472b
fffc472b
fffc472b
fffc472b
fffc472b
fffc472b
fffc472b
fffc472b
fffc472b
fffc472b
fffc472b
fffc472b
fffc472b
fffc472b
fffc472b
fffc472b
fffc472b
fffc472b
fffc472b
fffc472b
fffc472b
fffc472b
fffc472b
fffc472b
fffc472b
fffc472b
fffc472b
fffc472b
fffc472b
fffc472b
fffc472b
fffc472b
fffc472b
fffc472b
fffc472b
fffc472b
fffc472b
fffc472b
fffc472b
fffc472b
fffc472b
fffc472b
fffc472b
fffc472b
fffc472b
fffc472b
fffc472b
fffc472b
fffc472b
fffc472b
fffc472b
fffc472b
fffc472b
fffc472b
fffc472b
fffc472b
fffc472b
fffc472b
fffc472b
fffc472b
fffc472b
fffc472b
fffc472b
fffc472b
fffc472b
fffc472b
fffc472b
fffc472b
fffc472b
fffc472b
fffc472b
fffc472b
fffc472b
fffc472b
fffc472b
fffc472b
fffc472b
fffc472b
fffc472b
fffc472b
fffc472b
fffc472b
fffc472b
fffc472b
fffc472b
fffc472b
fffc472b
fffc472b
fffc472b
fffc472b
fffc472b
fffc472b
fffc472b
fffc472b
fffc472b
fffc472b
fffc472b
fffc472b
fffc472b
fffc472b
fffc472b
fffc472b
fffc472b
fffc472b
fffc472b
fffc472b
fffc472b
fffc472b
fffc472b
fffc472b
fffc472b
fffc472b
fffc472b
fffa00b3
fffa00b3
fffa00b3
fffa00b3
fffa00b3
fffa00b3
fffa00b3
fffa00b3
fffa00b3
fffa00b3
fffa00b3
fffa00b3
fffa00b3
fffa00b3
fffa00b3
fffa00b3
fffa00b3
fffa00b3
fffa00b3
fffa00b3
fffa00b3
fffa00b3
fffa00b3
fffa00b3
fffa00b3
fffa00b3
fffa00b3
fffa00b3
fffa00b3
fffa00b3
fffa00b3
fffa00b3
fffa00b3
fffa00b3
fffa00b3
fffa00b3
fffa00b3
fffa00b3
fffa00b3
fffa00b3
fffa00b3
fffa00b3
fffa00b3
fffa00b3
fffa00b3
fffa00b3
fffa00b3
fffa00b3
fffa00b3
fffa00b3
fffa00b3
fffa00b3
fffa00b3
fffa00b3
fffa00b3
fffa00b3
fffa00b3
fffa00b3
fffa00b3
fffa00b3
fffa00b3
fffa00b3
fffa00b3
fffa00b3
fffa00b3
fffa00b3
fffa00b3
fffa00b3
fffa00b3
fffa00b3
fffa00b3
fffa00b3
fffa00b3
fffa00b3
fffa00b3
fffa00b3
fffa00b3
fffa00b3
fffa00b3
fffa00b3
fffa00b3
fffa00b3
fffa00b3
fffa00b3
fffa00b3
fffa00b3
fffa00b3
fffa00b3
fffa00b3
fffa00b3
fffa00b3
fffa00b3
fffa00b3
fffa00b3
fffa00b3
fffa00b3
fffa00b3
fffa00b3
fffa00b3
fffa00b3
fffa00b3
fffa00b3
fffa00b3
fffa00b3
fffa00b3
fffa00b3
fffa00b3
fffa00b3
fffa00b3
fffa00b3
fffa00b3
fffa00b3
fffa00b3
fffa00b3
fffa00b3
fffa00b3
fffa00b3
fffa00b3
fffa00b3
fffa00b3
fffa00b3
fffa00b3
fffa00b3
fffa00b3
fffa00b3
fffa00b3
fffa00b3
fffa00b3
fffa00b3
fffa00b3
fffa00b3
fffa00b3
fffa00b3
fffa00b3
fffa00b3
fffa00b3
fffa00b3
fffa00b3
fffa00b3
fffa00b3
fffa00b3
fffa00b3
fffa00b3
fffa00b3
fffa00b3
fffa00b3
fffa00b3
fffa00b3
fffa00b3
fffa00b3
fffa00b3
fffa00b3
fffa00b3
fffa00b3
fffa00b3
fffa00b3
fffa00b3
fffa00b3
fffa00b3
fffa00b3
fffa00b3
fffa00b3
fffa00b3
fffa00b3
fffa00b3
fffa00b3
fffa00b3
fffa00b3
fffa00b3
fffa00b3
fffa00b3
fffa00b3
fffa00b3
fffa00b3
fffa00b3
fffa00b3
fffa00b3
fffa00b3
fffa00b3
fffa00b3
fffa00b3
fffa00b3
fffa00b3
fffa00b3
fffa00b3
fffa00b3
fffa00b3
fffa00b3
fffa00b3
fffa00b3
fffa00b3
fffa00b3
fffa00b3
fffa00b3
fffa00b3
fffa00b3
fffb7c67
fffb7c67
fffb7c67
fffb7c67
fffb7c67
fffb7c67
fffb7c67
fffb7c67
fffb7c67
fffb7c67
fffb7c67
fffb7c67
fffb7c67
fffb7c67
fffb7c67
fffb7c67
fffb7c67
fffb7c67
fffb7c67
fffb7c67
fffb7c67
fffb7c67
fffb7c67
fffb7c67
fffb7c67
fffb7c67
fffb7c67
fffb7c67
fffb7c67
fffb7c67
fffb7c67
fffb7c67
fffb7c67
fffb7c67
fffb7c67
fffb7c67
fffb7c67
fffb7c67
fffb7c67
fffb7c67
fffb7c67
fffb7c67
fffb7c67
fffb7c67
fffb7c67
fffb7c67
fffb7c67
fffb7c67
fffb7c67
fffb7c67
fffb7c67
fffb7c67
fffb7c67
fffb7c67
fffb7c67
fffb7c67
fffb7c67
fffb7c67
fffb7c67
fffb7c67
fffb7c67
fffb7c67
fffb7c67
fffb7c67
fffb7c67
fffb7c67
fffb7c67
fffb7c67
fffb7c67
fffb7c67
fffb7c67
fffb7c67
fffb7c67
fffb7c67
fffb7c67
fffb7c67
fffb7c67
fffb7c67
fffb7c67
fffb7c67
fffb7c67
fffb7c67
fffb7c67
fffb7c67
fffb7c67
fffb7c67
fffb7c67
fffb7c67
fffb7c67
fffb7c67
fffb7c67
fffb7c67
fffb7c67
fffb7c67
fffb7c67
fffb7c67
fffb7c67
fffb7c67
fffb7c67
fffb7c67
fffb7c67
fffb7c67
fffb7c67
fffb7c67
fffb7c67
fffb7c67
fffb7c67
fffb7c67
fffb7c67
fffb7c67
fffb7c67
fffb7c67
fffb7c67
fffb7c67
fffb7c67
fffb7c67
fffb7c67
fffb7c67
fffb7c67
fffb7c67
fffb7c67
fffb7c67
fffb7c67
fffb7c67
fffb7c67
fffb7c67
fffb7c67
fffb7c67
fffb7c67
fffb7c67
fffb7c67
fffb7c67
fffb7c67
fffb7c67
fffb7c67
fffb7c67
fffb7c67
fffb7c67
fffb7c67
fffb7c67
fffb7c67
fffb7c67
fffb7c67
fffb7c67
fffb7c67
fffb7c67
fffb7c67
fffb7c67
fffb7c67
fffb7c67
fffb7c67
fffb7c67
fffb7c67
fffb7c67
fffb7c67
fffb7c67
fffb7c67
fffb7c67
fffb7c67
fffb7c67
fffb7c67
fffb7c67
fffb7c67
fffb7c67
fffb7c67
fffb7c67
fffb7c67
fffb7c67
fffb7c67
fffb7c67
fffb7c67
fffb7c67
fffb7c67
fffb7c67
fffb7c67
fffb7c67
fffb7c67
fffb7c67
fffb7c67
fffb7c67
fffb7c67
fffb7c67
fffb7c67
fffb7c67
fffb7c67
fffb7c67
fffb7c67
fffb7c67
fffb7c67
fffb7c67
fffb7c67
fffb7c67
fffb7c67
fffb7c67
fffb7c67
fffb7c67
ffffadad
ffffadad
ffffadad
ffffadad
ffffadad
ffffadad
ffffadad
ffffadad
ffffadad
ffffadad
ffffadad
ffffadad
ffffadad
ffffadad
ffffadad
ffffadad
ffffadad
ffffadad
ffffadad
ffffadad
ffffadad
ffffadad
ffffadad
ffffadad
ffffadad
ffffadad
ffffadad
ffffadad
ffffadad
ffffadad
ffffadad
ffffadad
ffffadad
ffffadad
ffffadad
ffffadad
ffffadad
ffffadad
ffffadad
ffffadad
ffffadad
ffffadad
ffffadad
ffffadad
ffffadad
ffffadad
ffffadad
ffffadad
ffffadad
ffffadad
ffffadad
ffffadad
ffffadad
ffffadad
ffffadad
ffffadad
ffffadad
ffffadad
ffffadad
ffffadad
ffffadad
ffffadad
ffffadad
ffffadad
ffffadad
ffffadad
ffffadad
ffffadad
ffffadad
ffffadad
ffffadad
ffffadad
ffffadad
ffffadad
ffffadad
ffffadad
ffffadad
ffffadad
ffffadad
ffffadad
ffffadad
ffffadad
ffffadad
ffffadad
ffffadad
ffffadad
ffffadad
ffffadad
ffffadad
ffffadad
ffffadad
ffffadad
ffffadad
ffffadad
ffffadad
ffffadad
ffffadad
ffffadad
ffffadad
ffffadad
ffffadad
ffffadad
ffffadad
ffffadad
ffffadad
ffffadad
ffffadad
ffffadad
ffffadad
ffffadad
ffffadad
ffffadad
ffffadad
ffffadad
ffffadad
ffffadad
ffffadad
ffffadad
ffffadad
ffffadad
ffffadad
ffffadad
ffffadad
ffffadad
ffffadad
ffffadad
ffffadad
ffffadad
ffffadad
ffffadad
ffffadad
ffffadad
ffffadad
ffffadad
ffffadad
ffffadad
ffffadad
ffffadad
ffffadad
ffffadad
ffffadad
ffffadad
ffffadad
ffffadad
ffffadad
ffffadad
ffffadad
ffffadad
ffffadad
ffffadad
ffffadad
ffffadad
ffffadad
ffffadad
ffffadad
ffffadad
ffffadad
ffffadad
ffffadad
ffffadad
ffffadad
ffffadad
ffffadad
ffffadad
ffffadad
ffffadad
ffffadad
ffffadad
ffffadad
ffffadad
ffffadad
ffffadad
ffffadad
ffffadad
ffffadad
ffffadad
ffffadad
ffffadad
ffffadad
ffffadad
ffffadad
ffffadad
ffffadad
ffffadad
ffffadad
ffffadad
ffffadad
ffffadad
ffffadad
ffffadad
ffffadad
ffffadad
ffffadad
ffffadad
ffffadad
ffffadad
fffa4123
fffa4123
fffa4123
fffa4123
fffa4123
fffa4123
fffa4123
fffa4123
fffa4123
fffa4123
fffa4123
fffa4123
fffa4123
fffa4123
fffa4123
fffa4123
fffa4123
fffa4123
fffa4123
fffa4123
fffa4123
fffa4123
fffa4123
fffa4123
fffa4123
fffa4123
fffa4123
fffa4123
fffa4123
fffa4123
fffa4123
fffa4123
fffa4123
fffa4123
fffa4123
fffa4123
fffa4123
fffa4123
fffa4123
fffa4123
fffa4123
fffa4123
fffa4123
fffa4123
fffa4123
fffa4123
fffa4123
fffa4123
fffa4123
fffa4123
fffa4123
fffa4123
fffa4123
fffa4123
fffa4123
fffa4123
fffa4123
fffa4123
fffa4123
fffa4123
fffa4123
fffa4123
fffa4123
fffa4123
fffa4123
fffa4123
fffa4123
fffa4123
fffa4123
fffa4123
fffa4123
fffa4123
fffa4123
fffa4123
fffa4123
fffa4123
fffa4123
fffa4123
fffa4123
fffa4123
fffa4123
fffa4123
fffa4123
fffa4123
fffa4123
fffa4123
fffa4123
fffa4123
fffa4123
fffa4123
fffa4123
fffa4123
fffa4123
fffa4123
fffa4123
fffa4123
fffa4123
fffa4123
fffa4123
fffa4123
fffa4123
fffa4123
fffa4123
fffa4123
fffa4123
fffa4123
fffa4123
fffa4123
fffa4123
fffa4123
fffa4123
fffa4123
fffa4123
fffa4123
fffa4123
fffa4123
fffa4123
fffa4123
fffa4123
fffa4123
fffa4123
fffa4123
fffa4123
fffa4123
fffa4123
fffa4123
fffa4123
fffa4123
fffa4123
fffa4123
fffa4123
fffa4123
fffa4123
fffa4123
fffa4123
fffa4123
fffa4123
fffa4123
fffa4123
fffa4123
fffa4123
fffa4123
fffa4123
fffa4123
fffa4123
fffa4123
fffa4123
fffa4123
fffa4123
fffa4123
fffa4123
fffa4123
fffa4123
fffa4123
fffa4123
fffa4123
fffa4123
fffa4123
fffa4123
fffa4123
fffa4123
fffa4123
fffa4123
fffa4123
fffa4123
fffa4123
fffa4123
fffa4123
fffa4123
fffa4123
fffa4123
fffa4123
fffa4123
fffa4123
fffa4123
fffa4123
fffa4123
fffa4123
fffa4123
fffa4123
fffa4123
fffa4123
fffa4123
fffa4123
fffa4123
fffa4123
fffa4123
fffa4123
fffa4123
fffa4123
fffa4123
fffa4123
fffa4123
fffa4123
fffa4123
fffa4123
fff7cc17
fff7cc17
fff7cc17
fff7cc17
fff7cc17
fff7cc17
fff7cc17
fff7cc17
fff7cc17
fff7cc17
fff7cc17
fff7cc17
fff7cc17
fff7cc17
fff7cc17
fff7cc17
fff7cc17
fff7cc17
fff7cc17
fff7cc17
fff7cc17
fff7cc17
fff7cc17
fff7cc17
fff7cc17
fff7cc17
fff7cc17
fff7cc17
fff7cc17
fff7cc17
fff7cc17
fff7cc17
fff7cc17
fff7cc17
fff7cc17
fff7cc17
fff7cc17
fff7cc17
fff7cc17
fff7cc17
fff7cc17
fff7cc17
fff7cc17
fff7cc17
fff7cc17
fff7cc17
fff7cc17
fff7cc17
fff7cc17
fff7cc17
fff7cc17
fff7cc17
fff7cc17
fff7cc17
fff7cc17
fff7cc17
fff7cc17
fff7cc17
fff7cc17
fff7cc17
fff7cc17
fff7cc17
fff7cc17
fff7cc17
fff7cc17
fff7cc17
fff7cc17
fff7cc17
fff7cc17
fff7cc17
fff7cc17
fff7cc17
fff7cc17
fff7cc17
fff7cc17
fff7cc17
fff7cc17
fff7cc17
fff7cc17
fff7cc17
fff7cc17
fff7cc17
fff7cc17
fff7cc17
fff7cc17
fff7cc17
fff7cc17
fff7cc17
fff7cc17
fff7cc17
fff7cc17
fff7cc17
fff7cc17
fff7cc17
fff7cc17
fff7cc17
fff7cc17
fff7cc17
fff7cc17
fff7cc17
fff7cc17
fff7cc17
fff7cc17
fff7cc17
fff7cc17
fff7cc17
fff7cc17
fff7cc17
fff7cc17
fff7cc17
fff7cc17
fff7cc17
fff7cc17
fff7cc17
fff7cc17
fff7cc17
fff7cc17
fff7cc17
fff7cc17
fff7cc17
fff7cc17
fff7cc17
fff7cc17
fff7cc17
fff7cc17
fff7cc17
fff7cc17
fff7cc17
fff7cc17
fff7cc17
fff7cc17
fff7cc17
fff7cc17
fff7cc17
fff7cc17
fff7cc17
fff7cc17
fff7cc17
fff7cc17
fff7cc17
fff7cc17
fff7cc17
fff7cc17
fff7cc17
fff7cc17
fff7cc17
fff7cc17
fff7cc17
fff7cc17
fff7cc17
fff7cc17
fff7cc17
fff7cc17
fff7cc17
fff7cc17
fff7cc17
fff7cc17
fff7cc17
fff7cc17
fff7cc17
fff7cc17
fff7cc17
fff7cc17
fff7cc17
fff7cc17
fff7cc17
fff7cc17
fff7cc17
fff7cc17
fff7cc17
fff7cc17
fff7cc17
fff7cc17
fff7cc17
fff7cc17
fff7cc17
fff7cc17
fff7cc17
fff7cc17
fff7cc17
fff7cc17
fff7cc17
fff7cc17
fff7cc17
fff7cc17
fff7cc17
fff7cc17
fff7cc17
fff7cc17
fff7cc17
fff7cc17
fff7cc17
fff7cc17
fff7cc17
fff7cc17
fff7cc17
fffbeb61
fffbeb61
fffbeb61
fffbeb61
fffbeb61
fffbeb61
fffbeb61
fffbeb61
fffbeb61
fffbeb61
fffbeb61
fffbeb61
fffbeb61
fffbeb61
fffbeb61
fffbeb61
fffbeb61
fffbeb61
fffbeb61
fffbeb61
fffbeb61
fffbeb61
fffbeb61
fffbeb61
fffbeb61
fffbeb61
fffbeb61
fffbeb61
fffbeb61
fffbeb61
fffbeb61
fffbeb61
fffbeb61
fffbeb61
fffbeb61
fffbeb61
fffbeb61
fffbeb61
fffbeb61
fffbeb61
fffbeb61
fffbeb61
fffbeb61
fffbeb61
fffbeb61
fffbeb61
fffbeb61
fffbeb61
fffbeb61
fffbeb61
fffbeb61
fffbeb61
fffbeb61
fffbeb61
fffbeb61
fffbeb61
fffbeb61
fffbeb61
fffbeb61
fffbeb61
fffbeb61
fffbeb61
fffbeb61
fffbeb61
fffbeb61
fffbeb61
fffbeb61
fffbeb61
fffbeb61
fffbeb61
fffbeb61
fffbeb61
fffbeb61
fffbeb61
fffbeb61
fffbeb61
fffbeb61
fffbeb61
fffbeb61
fffbeb61
fffbeb61
fffbeb61
fffbeb61
fffbeb61
fffbeb61
fffbeb61
fffbeb61
fffbeb61
fffbeb61
fffbeb61
fffbeb61
fffbeb61
fffbeb61
fffbeb61
fffbeb61
fffbeb61
fffbeb61
fffbeb61
fffbeb61
fffbeb61
fffbeb61
fffbeb61
fffbeb61
fffbeb61
fffbeb61
fffbeb61
fffbeb61
fffbeb61
fffbeb61
fffbeb61
fffbeb61
fffbeb61
fffbeb61
fffbeb61
fffbeb61
fffbeb61
fffbeb61
fffbeb61
fffbeb61
fffbeb61
fffbeb61
fffbeb61
fffbeb61
fffbeb61
fffbeb61
fffbeb61
fffbeb61
fffbeb61
fffbeb61
fffbeb61
fffbeb61
fffbeb61
fffbeb61
fffbeb61
fffbeb61
fffbeb61
fffbeb61
fffbeb61
fffbeb61
fffbeb61
fffbeb61
fffbeb61
fffbeb61
fffbeb61
fffbeb61
fffbeb61
fffbeb61
fffbeb61
fffbeb61
fffbeb61
fffbeb61
fffbeb61
fffbeb61
fffbeb61
fffbeb61
fffbeb61
fffbeb61
fffbeb61
fffbeb61
fffbeb61
fffbeb61
fffbeb61
fffbeb61
fffbeb61
fffbeb61
fffbeb61
fffbeb61
fffbeb61
fffbeb61
fffbeb61
fffbeb61
fffbeb61
fffbeb61
fffbeb61
fffbeb61
fffbeb61
fffbeb61
fffbeb61
fffbeb61
fffbeb61
fffbeb61
fffbeb61
fffbeb61
fffbeb61
fffbeb61
fffbeb61
fffbeb61
fffbeb61
fffbeb61
fffbeb61
fffbeb61
fffbeb61
fffbeb61
fffbeb61
fffbeb61
fffbeb61
fffb0ca7
fffb0ca7
fffb0ca7
fffb0ca7
fffb0ca7
fffb0ca7
fffb0ca7
fffb0ca7
fffb0ca7
fffb0ca7
fffb0ca7
fffb0ca7
fffb0ca7
fffb0ca7
fffb0ca7
fffb0ca7
fffb0ca7
fffb0ca7
fffb0ca7
fffb0ca7
fffb0ca7
fffb0ca7
fffb0ca7
fffb0ca7
fffb0ca7
fffb0ca7
fffb0ca7
fffb0ca7
fffb0ca7
fffb0ca7
fffb0ca7
fffb0ca7
fffb0ca7
fffb0ca7
fffb0ca7
fffb0ca7
fffb0ca7
fffb0ca7
fffb0ca7
fffb0ca7
fffb0ca7
fffb0ca7
fffb0ca7
fffb0ca7
fffb0ca7
fffb0ca7
fffb0ca7
fffb0ca7
fffb0ca7
fffb0ca7
fffb0ca7
fffb0ca7
fffb0ca7
fffb0ca7
fffb0ca7
fffb0ca7
fffb0ca7
fffb0ca7
fffb0ca7
fffb0ca7
fffb0ca7
fffb0ca7
fffb0ca7
fffb0ca7
fffb0ca7
fffb0ca7
fffb0ca7
fffb0ca7
fffb0ca7
fffb0ca7
fffb0ca7
fffb0ca7
fffb0ca7
fffb0ca7
fffb0ca7
fffb0ca7
fffb0ca7
fffb0ca7
fffb0ca7
fffb0ca7
fffb0ca7
fffb0ca7
fffb0ca7
fffb0ca7
fffb0ca7
fffb0ca7
fffb0ca7
fffb0ca7
fffb0ca7
fffb0ca7
fffb0ca7
fffb0ca7
fffb0ca7
fffb0ca7
fffb0ca7
fffb0ca7
fffb0ca7
fffb0ca7
fffb0ca7
fffb0ca7
fffb0ca7
fffb0ca7
fffb0ca7
fffb0ca7
fffb0ca7
fffb0ca7
fffb0ca7
fffb0ca7
fffb0ca7
fffb0ca7
fffb0ca7
fffb0ca7
fffb0ca7
fffb0ca7
fffb0ca7
fffb0ca7
fffb0ca7
fffb0ca7
fffb0ca7
fffb0ca7
fffb0ca7
fffb0ca7
fffb0ca7
fffb0ca7
fffb0ca7
fffb0ca7
fffb0ca7
fffb0ca7
fffb0ca7
fffb0ca7
fffb0ca7
fffb0ca7
fffb0ca7
fffb0ca7
fffb0ca7
fffb0ca7
fffb0ca7
fffb0ca7
fffb0ca7
fffb0ca7
fffb0ca7
fffb0ca7
fffb0ca7
fffb0ca7
fffb0ca7
fffb0ca7
fffb0ca7
fffb0ca7
fffb0ca7
fffb0ca7
fffb0ca7
fffb0ca7
fffb0ca7
fffb0ca7
fffb0ca7
fffb0ca7
fffb0ca7
fffb0ca7
fffb0ca7
fffb0ca7
fffb0ca7
fffb0ca7
fffb0ca7
fffb0ca7
fffb0ca7
fffb0ca7
fffb0ca7
fffb0ca7
fffb0ca7
fffb0ca7
fffb0ca7
fffb0ca7
fffb0ca7
fffb0ca7
fffb0ca7
fffb0ca7
fffb0ca7
fffb0ca7
fffb0ca7
fffb0ca7
fffb0ca7
fffb0ca7
fffb0ca7
fffb0ca7
fffb0ca7
fffb0ca7
fffb0ca7
fffb0ca7
fffb0ca7
fffb0ca7
fffb0ca7
fffb0ca7
fffb0ca7
fffb0ca7
fffb0ca7
fffb0ca7
fffb600f
fffb600f
fffb600f
fffb600f
fffb600f
fffb600f
fffb600f
fffb600f
fffb600f
fffb600f
fffb600f
fffb600f
fffb600f
fffb600f
fffb600f
fffb600f
fffb600f
fffb600f
fffb600f
fffb600f
fffb600f
fffb600f
fffb600f
fffb600f
fffb600f
fffb600f
fffb600f
fffb600f
fffb600f
fffb600f
fffb600f
fffb600f
fffb600f
fffb600f
fffb600f
fffb600f
fffb600f
fffb600f
fffb600f
fffb600f
fffb600f
fffb600f
fffb600f
fffb600f
fffb600f
fffb600f
fffb600f
fffb600f
fffb600f
fffb600f
fffb600f
fffb600f
fffb600f
fffb600f
fffb600f
fffb600f
fffb600f
fffb600f
fffb600f
fffb600f
fffb600f
fffb600f
fffb600f
fffb600f
fffb600f
fffb600f
fffb600f
fffb600f
fffb600f
fffb600f
fffb600f
fffb600f
fffb600f
fffb600f
fffb600f
fffb600f
fffb600f
fffb600f
fffb600f
fffb600f
fffb600f
fffb600f
fffb600f
fffb600f
fffb600f
fffb600f
fffb600f
fffb600f
fffb600f
fffb600f
fffb600f
fffb600f
fffb600f
fffb600f
fffb600f
fffb600f
fffb600f
fffb600f
fffb600f
fffb600f
fffb600f
fffb600f
fffb600f
fffb600f
fffb600f
fffb600f
fffb600f
fffb600f
fffb600f
fffb600f
fffb600f
fffb600f
fffb600f
fffb600f
fffb600f
fffb600f
fffb600f
fffb600f
fffb600f
fffb600f
fffb600f
fffb600f
fffb600f
fffb600f
fffb600f
fffb600f
fffb600f
fffb600f
fffb600f
fffb600f
fffb600f
fffb600f
fffb600f
fffb600f
fffb600f
fffb600f
fffb600f
fffb600f
fffb600f
fffb600f
fffb600f
fffb600f
fffb600f
fffb600f
fffb600f
fffb600f
fffb600f
fffb600f
fffb600f
fffb600f
fffb600f
fffb600f
fffb600f
fffb600f
fffb600f
fffb600f
fffb600f
fffb600f
fffb600f
fffb600f
fffb600f
fffb600f
fffb600f
fffb600f
fffb600f
fffb600f
fffb600f
fffb600f
fffb600f
fffb600f
fffb600f
fffb600f
fffb600f
fffb600f
fffb600f
fffb600f
fffb600f
fffb600f
fffb600f
fffb600f
fffb600f
fffb600f
fffb600f
fffb600f
fffb600f
fffb600f
fffb600f
fffb600f
fffb600f
fffb600f
fffb600f
fffb600f
fffb600f
fffb600f
fffb600f
fffb600f
fffc1534
fffc1534
fffc1534
fffc1534
fffc1534
fffc1534
fffc1534
fffc1534
fffc1534
fffc1534
fffc1534
fffc1534
fffc1534
fffc1534
fffc1534
fffc1534
fffc1534
fffc1534
fffc1534
fffc1534
fffc1534
fffc1534
fffc1534
fffc1534
fffc1534
fffc1534
fffc1534
fffc1534
fffc1534
fffc1534
fffc1534
fffc1534
fffc1534
fffc1534
fffc1534
fffc1534
fffc1534
fffc1534
fffc1534
fffc1534
fffc1534
fffc1534
fffc1534
fffc1534
fffc1534
fffc1534
fffc1534
fffc1534
fffc1534
fffc1534
fffc1534
fffc1534
fffc1534
fffc1534
fffc1534
fffc1534
fffc1534
fffc1534
fffc1534
fffc1534
fffc1534
fffc1534
fffc1534
fffc1534
fffc1534
fffc1534
fffc1534
fffc1534
fffc1534
fffc1534
fffc1534
fffc1534
fffc1534
fffc1534
fffc1534
fffc1534
fffc1534
fffc1534
fffc1534
fffc1534
fffc1534
fffc1534
fffc1534
fffc1534
fffc1534
fffc1534
fffc1534
fffc1534
fffc1534
fffc1534
fffc1534
fffc1534
fffc1534
fffc1534
fffc1534
fffc1534
fffc1534
fffc1534
fffc1534
fffc1534
fffc1534
fffc1534
fffc1534
fffc1534
fffc1534
fffc1534
fffc1534
fffc1534
fffc1534
fffc1534
fffc1534
fffc1534
fffc1534
fffc1534
fffc1534
fffc1534
fffc1534
fffc1534
fffc1534
fffc1534
fffc1534
fffc1534
fffc1534
fffc1534
fffc1534
fffc1534
fffc1534
fffc1534
fffc1534
fffc1534
fffc1534
fffc1534
fffc1534
fffc1534
fffc1534
fffc1534
fffc1534
fffc1534
fffc1534
fffc1534
fffc1534
fffc1534
fffc1534
fffc1534
fffc1534
fffc1534
fffc1534
fffc1534
fffc1534
fffc1534
fffc1534
fffc1534
fffc1534
fffc1534
fffc1534
fffc1534
fffc1534
fffc1534
fffc1534
fffc1534
fffc1534
fffc1534
fffc1534
fffc1534
fffc1534
fffc1534
fffc1534
fffc1534
fffc1534
fffc1534
fffc1534
fffc1534
fffc1534
fffc1534
fffc1534
fffc1534
fffc1534
fffc1534
fffc1534
fffc1534
fffc1534
fffc1534
fffc1534
fffc1534
fffc1534
fffc1534
fffc1534
fffc1534
fffc1534
fffc1534
fffc1534
fffc1534
fffc1534
fffc1534
fffc1534
fffc1534
fffc9976
fffc9976
fffc9976
fffc9976
fffc9976
fffc9976
fffc9976
fffc9976
fffc9976
fffc9976
fffc9976
fffc9976
fffc9976
fffc9976
fffc9976
fffc9976
fffc9976
fffc9976
fffc9976
fffc9976
fffc9976
fffc9976
fffc9976
fffc9976
fffc9976
fffc9976
fffc9976
fffc9976
fffc9976
fffc9976
fffc9976
fffc9976
fffc9976
fffc9976
fffc9976
fffc9976
fffc9976
fffc9976
fffc9976
fffc9976
fffc9976
fffc9976
fffc9976
fffc9976
fffc9976
fffc9976
fffc9976
fffc9976
fffc9976
fffc9976
fffc9976
fffc9976
fffc9976
fffc9976
fffc9976
fffc9976
fffc9976
fffc9976
fffc9976
fffc9976
fffc9976
fffc9976
fffc9976
fffc9976
fffc9976
fffc9976
fffc9976
fffc9976
fffc9976
fffc9976
fffc9976
fffc9976
fffc9976
fffc9976
fffc9976
fffc9976
fffc9976
fffc9976
fffc9976
fffc9976
fffc9976
fffc9976
fffc9976
fffc9976
fffc9976
fffc9976
fffc9976
fffc9976
fffc9976
fffc9976
fffc9976
fffc9976
fffc9976
fffc9976
fffc9976
fffc9976
fffc9976
fffc9976
fffc9976
fffc9976
fffc9976
fffc9976
fffc9976
fffc9976
fffc9976
fffc9976
fffc9976
fffc9976
fffc9976
fffc9976
fffc9976
fffc9976
fffc9976
fffc9976
fffc9976
fffc9976
fffc9976
fffc9976
fffc9976
fffc9976
fffc9976
fffc9976
fffc9976
fffc9976
fffc9976
fffc9976
fffc9976
fffc9976
fffc9976
fffc9976
fffc9976
fffc9976
fffc9976
fffc9976
fffc9976
fffc9976
fffc9976
fffc9976
fffc9976
fffc9976
fffc9976
fffc9976
fffc9976
fffc9976
fffc9976
fffc9976
fffc9976
fffc9976
fffc9976
fffc9976
fffc9976
fffc9976
fffc9976
fffc9976
fffc9976
fffc9976
fffc9976
fffc9976
fffc9976
fffc9976
fffc9976
fffc9976
fffc9976
fffc9976
fffc9976
fffc9976
fffc9976
fffc9976
fffc9976
fffc9976
fffc9976
fffc9976
fffc9976
fffc9976
fffc9976
fffc9976
fffc9976
fffc9976
fffc9976
fffc9976
fffc9976
fffc9976
fffc9976
fffc9976
fffc9976
fffc9976
fffc9976
fffc9976
fffc9976
fffc9976
fffc9976
fffc9976
fffc9976
fffc9976
fffc9976
fffc9976
fff9b4cd
fff9b4cd
fff9b4cd
fff9b4cd
fff9b4cd
fff9b4cd
fff9b4cd
fff9b4cd
fff9b4cd
fff9b4cd
fff9b4cd
fff9b4cd
fff9b4cd
fff9b4cd
fff9b4cd
fff9b4cd
fff9b4cd
fff9b4cd
fff9b4cd
fff9b4cd
fff9b4cd
fff9b4cd
fff9b4cd
fff9b4cd
fff9b4cd
fff9b4cd
fff9b4cd
fff9b4cd
fff9b4cd
fff9b4cd
fff9b4cd
fff9b4cd
fff9b4cd
fff9b4cd
fff9b4cd
fff9b4cd
fff9b4cd
fff9b4cd
fff9b4cd
fff9b4cd
fff9b4cd
fff9b4cd
fff9b4cd
fff9b4cd
fff9b4cd
fff9b4cd
fff9b4cd
fff9b4cd
fff9b4cd
fff9b4cd
fff9b4cd
fff9b4cd
fff9b4cd
fff9b4cd
fff9b4cd
fff9b4cd
fff9b4cd
fff9b4cd
fff9b4cd
fff9b4cd
fff9b4cd
fff9b4cd
fff9b4cd
fff9b4cd
fff9b4cd
fff9b4cd
fff9b4cd
fff9b4cd
fff9b4cd
fff9b4cd
fff9b4cd
fff9b4cd
fff9b4cd
fff9b4cd
fff9b4cd
fff9b4cd
fff9b4cd
fff9b4cd
fff9b4cd
fff9b4cd
fff9b4cd
fff9b4cd
fff9b4cd
fff9b4cd
fff9b4cd
fff9b4cd
fff9b4cd
fff9b4cd
fff9b4cd
fff9b4cd
fff9b4cd
fff9b4cd
fff9b4cd
fff9b4cd
fff9b4cd
fff9b4cd
fff9b4cd
fff9b4cd
fff9b4cd
fff9b4cd
fff9b4cd
fff9b4cd
fff9b4cd
fff9b4cd
fff9b4cd
fff9b4cd
fff9b4cd
fff9b4cd
fff9b4cd
fff9b4cd
fff9b4cd
fff9b4cd
fff9b4cd
fff9b4cd
fff9b4cd
fff9b4cd
fff9b4cd
fff9b4cd
fff9b4cd
fff9b4cd
fff9b4cd
fff9b4cd
fff9b4cd
fff9b4cd
fff9b4cd
fff9b4cd
fff9b4cd
fff9b4cd
fff9b4cd
fff9b4cd
fff9b4cd
fff9b4cd
fff9b4cd
fff9b4cd
fff9b4cd
fff9b4cd
fff9b4cd
fff9b4cd
fff9b4cd
fff9b4cd
fff9b4cd
fff9b4cd
fff9b4cd
fff9b4cd
fff9b4cd
fff9b4cd
fff9b4cd
fff9b4cd
fff9b4cd
fff9b4cd
fff9b4cd
fff9b4cd
fff9b4cd
fff9b4cd
fff9b4cd
fff9b4cd
fff9b4cd
fff9b4cd
fff9b4cd
fff9b4cd
fff9b4cd
fff9b4cd
fff9b4cd
fff9b4cd
fff9b4cd
fff9b4cd
fff9b4cd
fff9b4cd
fff9b4cd
fff9b4cd
fff9b4cd
fff9b4cd
fff9b4cd
fff9b4cd
fff9b4cd
fff9b4cd
fff9b4cd
fff9b4cd
fff9b4cd
fff9b4cd
fff9b4cd
fff9b4cd
fff9b4cd
fff9b4cd
fff9b4cd
fff9b4cd
fff9b4cd
fff9b4cd
fff9b4cd
fff9b4cd
fff9b4cd
fff9b4cd
fff9b4cd
fff9b4cd
fff9b4cd
fff9b4cd
fffc0964
fffc0964
fffc0964
fffc0964
fffc0964
fffc0964
fffc0964
fffc0964
fffc0964
fffc0964
fffc0964
fffc0964
fffc0964
fffc0964
fffc0964
fffc0964
fffc0964
fffc0964
fffc0964
fffc0964
fffc0964
fffc0964
fffc0964
fffc0964
fffc0964
fffc0964
fffc0964
fffc0964
fffc0964
fffc0964
fffc0964
fffc0964
fffc0964
fffc0964
fffc0964
fffc0964
fffc0964
fffc0964
fffc0964
fffc0964
fffc0964
fffc0964
fffc0964
fffc0964
fffc0964
fffc0964
fffc0964
fffc0964
fffc0964
fffc0964
fffc0964
fffc0964
fffc0964
fffc0964
fffc0964
fffc0964
fffc0964
fffc0964
fffc0964
fffc0964
fffc0964
fffc0964
fffc0964
fffc0964
fffc0964
fffc0964
fffc0964
fffc0964
fffc0964
fffc0964
fffc0964
fffc0964
fffc0964
fffc0964
fffc0964
fffc0964
fffc0964
fffc0964
fffc0964
fffc0964
fffc0964
fffc0964
fffc0964
fffc0964
fffc0964
fffc0964
fffc0964
fffc0964
fffc0964
fffc0964
fffc0964
fffc0964
fffc0964
fffc0964
fffc0964
fffc0964
fffc0964
fffc0964
fffc0964
fffc0964
fffc0964
fffc0964
fffc0964
fffc0964
fffc0964
fffc0964
fffc0964
fffc0964
fffc0964
fffc0964
fffc0964
fffc0964
fffc0964
fffc0964
fffc0964
fffc0964
fffc0964
fffc0964
fffc0964
fffc0964
fffc0964
fffc0964
fffc0964
fffc0964
fffc0964
fffc0964
fffc0964
fffc0964
fffc0964
fffc0964
fffc0964
fffc0964
fffc0964
fffc0964
fffc0964
fffc0964
fffc0964
fffc0964
fffc0964
fffc0964
fffc0964
fffc0964
fffc0964
fffc0964
fffc0964
fffc0964
fffc0964
fffc0964
fffc0964
fffc0964
fffc0964
fffc0964
fffc0964
fffc0964
fffc0964
fffc0964
fffc0964
fffc0964
fffc0964
fffc0964
fffc0964
fffc0964
fffc0964
fffc0964
fffc0964
fffc0964
fffc0964
fffc0964
fffc0964
fffc0964
fffc0964
fffc0964
fffc0964
fffc0964
fffc0964
fffc0964
fffc0964
fffc0964
fffc0964
fffc0964
fffc0964
fffc0964
fffc0964
fffc0964
fffc0964
fffc0964
fffc0964
fffc0964
fffc0964
fffc0964
fffc0964
fffc0964
fffc0964
fffc0964
fffc0964
fffc0964
fffc4f79
fffc4f79
fffc4f79
fffc4f79
fffc4f79
fffc4f79
fffc4f79
fffc4f79
fffc4f79
fffc4f79
fffc4f79
fffc4f79
fffc4f79
fffc4f79
fffc4f79
fffc4f79
fffc4f79
fffc4f79
fffc4f79
fffc4f79
fffc4f79
fffc4f79
fffc4f79
fffc4f79
fffc4f79
fffc4f79
fffc4f79
fffc4f79
fffc4f79
fffc4f79
fffc4f79
fffc4f79
fffc4f79
fffc4f79
fffc4f79
fffc4f79
fffc4f79
fffc4f79
fffc4f79
fffc4f79
fffc4f79
fffc4f79
fffc4f79
fffc4f79
fffc4f79
fffc4f79
fffc4f79
fffc4f79
fffc4f79
fffc4f79
fffc4f79
fffc4f79
fffc4f79
fffc4f79
fffc4f79
fffc4f79
fffc4f79
fffc4f79
fffc4f79
fffc4f79
fffc4f79
fffc4f79
fffc4f79
fffc4f79
fffc4f79
fffc4f79
fffc4f79
fffc4f79
fffc4f79
fffc4f79
fffc4f79
fffc4f79
fffc4f79
fffc4f79
fffc4f79
fffc4f79
fffc4f79
fffc4f79
fffc4f79
fffc4f79
fffc4f79
fffc4f79
fffc4f79
fffc4f79
fffc4f79
fffc4f79
fffc4f79
fffc4f79
fffc4f79
fffc4f79
fffc4f79
fffc4f79
fffc4f79
fffc4f79
fffc4f79
fffc4f79
fffc4f79
fffc4f79
fffc4f79
fffc4f79
fffc4f79
fffc4f79
fffc4f79
fffc4f79
fffc4f79
fffc4f79
fffc4f79
fffc4f79
fffc4f79
fffc4f79
fffc4f79
fffc4f79
fffc4f79
fffc4f79
fffc4f79
fffc4f79
fffc4f79
fffc4f79
fffc4f79
fffc4f79
fffc4f79
fffc4f79
fffc4f79
fffc4f79
fffc4f79
fffc4f79
fffc4f79
fffc4f79
fffc4f79
fffc4f79
fffc4f79
fffc4f79
fffc4f79
fffc4f79
fffc4f79
fffc4f79
fffc4f79
fffc4f79
fffc4f79
fffc4f79
fffc4f79
fffc4f79
fffc4f79
fffc4f79
fffc4f79
fffc4f79
fffc4f79
fffc4f79
fffc4f79
fffc4f79
fffc4f79
fffc4f79
fffc4f79
fffc4f79
fffc4f79
fffc4f79
fffc4f79
fffc4f79
fffc4f79
fffc4f79
fffc4f79
fffc4f79
fffc4f79
fffc4f79
fffc4f79
fffc4f79
fffc4f79
fffc4f79
fffc4f79
fffc4f79
fffc4f79
fffc4f79
fffc4f79
fffc4f79
fffc4f79
fffc4f79
fffc4f79
fffc4f79
fffc4f79
fffc4f79
fffc4f79
fffc4f79
fffc4f79
fffc4f79
fffc4f79
fffc4f79
fffc4f79
fffc4f79
fffc4f79
fffc4f79
fffc4f79
fffc4f79
fffc4f79
fffc4f79
fffc4f79
fffc4f79
fffc9cb5
fffc9cb5
fffc9cb5
fffc9cb5
fffc9cb5
fffc9cb5
fffc9cb5
fffc9cb5
fffc9cb5
fffc9cb5
fffc9cb5
fffc9cb5
fffc9cb5
fffc9cb5
fffc9cb5
fffc9cb5
fffc9cb5
fffc9cb5
fffc9cb5
fffc9cb5
fffc9cb5
fffc9cb5
fffc9cb5
fffc9cb5
fffc9cb5
fffc9cb5
fffc9cb5
fffc9cb5
fffc9cb5
fffc9cb5
fffc9cb5
fffc9cb5
fffc9cb5
fffc9cb5
fffc9cb5
fffc9cb5
fffc9cb5
fffc9cb5
fffc9cb5
fffc9cb5
fffc9cb5
fffc9cb5
fffc9cb5
fffc9cb5
fffc9cb5
fffc9cb5
fffc9cb5
fffc9cb5
fffc9cb5
fffc9cb5
fffc9cb5
fffc9cb5
fffc9cb5
fffc9cb5
fffc9cb5
fffc9cb5
fffc9cb5
fffc9cb5
fffc9cb5
fffc9cb5
fffc9cb5
fffc9cb5
fffc9cb5
fffc9cb5
fffc9cb5
fffc9cb5
fffc9cb5
fffc9cb5
fffc9cb5
fffc9cb5
fffc9cb5
fffc9cb5
fffc9cb5
fffc9cb5
fffc9cb5
fffc9cb5
fffc9cb5
fffc9cb5
fffc9cb5
fffc9cb5
fffc9cb5
fffc9cb5
fffc9cb5
fffc9cb5
fffc9cb5
fffc9cb5
fffc9cb5
fffc9cb5
fffc9cb5
fffc9cb5
fffc9cb5
fffc9cb5
fffc9cb5
fffc9cb5
fffc9cb5
fffc9cb5
fffc9cb5
fffc9cb5
fffc9cb5
fffc9cb5
fffc9cb5
fffc9cb5
fffc9cb5
fffc9cb5
fffc9cb5
fffc9cb5
fffc9cb5
fffc9cb5
fffc9cb5
fffc9cb5
fffc9cb5
fffc9cb5
fffc9cb5
fffc9cb5
fffc9cb5
fffc9cb5
fffc9cb5
fffc9cb5
fffc9cb5
fffc9cb5
fffc9cb5
fffc9cb5
fffc9cb5
fffc9cb5
fffc9cb5
fffc9cb5
fffc9cb5
fffc9cb5
fffc9cb5
fffc9cb5
fffc9cb5
fffc9cb5
fffc9cb5
fffc9cb5
fffc9cb5
fffc9cb5
fffc9cb5
fffc9cb5
fffc9cb5
fffc9cb5
fffc9cb5
fffc9cb5
fffc9cb5
fffc9cb5
fffc9cb5
fffc9cb5
fffc9cb5
fffc9cb5
fffc9cb5
fffc9cb5
fffc9cb5
fffc9cb5
fffc9cb5
fffc9cb5
fffc9cb5
fffc9cb5
fffc9cb5
fffc9cb5
fffc9cb5
fffc9cb5
fffc9cb5
fffc9cb5
fffc9cb5
fffc9cb5
fffc9cb5
fffc9cb5
fffc9cb5
fffc9cb5
fffc9cb5
fffc9cb5
fffc9cb5
fffc9cb5
fffc9cb5
fffc9cb5
fffc9cb5
fffc9cb5
fffc9cb5
fffc9cb5
fffc9cb5
fffc9cb5
fffc9cb5
fffc9cb5
fffc9cb5
fffc9cb5
fffc9cb5
fffc9cb5
fffc9cb5
fffc9cb5
fffc9cb5
fffc9cb5
fffc9cb5
fffc9cb5
fffc9cb5
fffc9cb5
fffc9cb5
fffc9cb5
fffe579b
fffe579b
fffe579b
fffe579b
fffe579b
fffe579b
fffe579b
fffe579b
fffe579b
fffe579b
fffe579b
fffe579b
fffe579b
fffe579b
fffe579b
fffe579b
fffe579b
fffe579b
fffe579b
fffe579b
fffe579b
fffe579b
fffe579b
fffe579b
fffe579b
fffe579b
fffe579b
fffe579b
fffe579b
fffe579b
fffe579b
fffe579b
fffe579b
fffe579b
fffe579b
fffe579b
fffe579b
fffe579b
fffe579b
fffe579b
fffe579b
fffe579b
fffe579b
fffe579b
fffe579b
fffe579b
fffe579b
fffe579b
fffe579b
fffe579b
fffe579b
fffe579b
fffe579b
fffe579b
fffe579b
fffe579b
fffe579b
fffe579b
fffe579b
fffe579b
fffe579b
fffe579b
fffe579b
fffe579b
fffe579b
fffe579b
fffe579b
fffe579b
fffe579b
fffe579b
fffe579b
fffe579b
fffe579b
fffe579b
fffe579b
fffe579b
fffe579b
fffe579b
fffe579b
fffe579b
fffe579b
fffe579b
fffe579b
fffe579b
fffe579b
fffe579b
fffe579b
fffe579b
fffe579b
fffe579b
fffe579b
fffe579b
fffe579b
fffe579b
fffe579b
fffe579b
fffe579b
fffe579b
fffe579b
fffe579b
fffe579b
fffe579b
fffe579b
fffe579b
fffe579b
fffe579b
fffe579b
fffe579b
fffe579b
fffe579b
fffe579b
fffe579b
fffe579b
fffe579b
fffe579b
fffe579b
fffe579b
fffe579b
fffe579b
fffe579b
fffe579b
fffe579b
fffe579b
fffe579b
fffe579b
fffe579b
fffe579b
fffe579b
fffe579b
fffe579b
fffe579b
fffe579b
fffe579b
fffe579b
fffe579b
fffe579b
fffe579b
fffe579b
fffe579b
fffe579b
fffe579b
fffe579b
fffe579b
fffe579b
fffe579b
fffe579b
fffe579b
fffe579b
fffe579b
fffe579b
fffe579b
fffe579b
fffe579b
fffe579b
fffe579b
fffe579b
fffe579b
fffe579b
fffe579b
fffe579b
fffe579b
fffe579b
fffe579b
fffe579b
fffe579b
fffe579b
fffe579b
fffe579b
fffe579b
fffe579b
fffe579b
fffe579b
fffe579b
fffe579b
fffe579b
fffe579b
fffe579b
fffe579b
fffe579b
fffe579b
fffe579b
fffe579b
fffe579b
fffe579b
fffe579b
fffe579b
fffe579b
fffe579b
fffe579b
fffe579b
fffe579b
fffe579b
fffe579b
fffe579b
fffe579b
fffe579b
fffabd21
fffabd21
fffabd21
fffabd21
fffabd21
fffabd21
fffabd21
fffabd21
fffabd21
fffabd21
fffabd21
fffabd21
fffabd21
fffabd21
fffabd21
fffabd21
fffabd21
fffabd21
fffabd21
fffabd21
fffabd21
fffabd21
fffabd21
fffabd21
fffabd21
fffabd21
fffabd21
fffabd21
fffabd21
fffabd21
fffabd21
fffabd21
fffabd21
fffabd21
fffabd21
fffabd21
fffabd21
fffabd21
fffabd21
fffabd21
fffabd21
fffabd21
fffabd21
fffabd21
fffabd21
fffabd21
fffabd21
fffabd21
fffabd21
fffabd21
fffabd21
fffabd21
fffabd21
fffabd21
fffabd21
fffabd21
fffabd21
fffabd21
fffabd21
fffabd21
fffabd21
fffabd21
fffabd21
fffabd21
fffabd21
fffabd21
fffabd21
fffabd21
fffabd21
fffabd21
fffabd21
fffabd21
fffabd21
fffabd21
fffabd21
fffabd21
fffabd21
fffabd21
fffabd21
fffabd21
fffabd21
fffabd21
fffabd21
fffabd21
fffabd21
fffabd21
fffabd21
fffabd21
fffabd21
fffabd21
fffabd21
fffabd21
fffabd21
fffabd21
fffabd21
fffabd21
fffabd21
fffabd21
fffabd21
fffabd21
fffabd21
fffabd21
fffabd21
fffabd21
fffabd21
fffabd21
fffabd21
fffabd21
fffabd21
fffabd21
fffabd21
fffabd21
fffabd21
fffabd21
fffabd21
fffabd21
fffabd21
fffabd21
fffabd21
fffabd21
fffabd21
fffabd21
fffabd21
fffabd21
fffabd21
fffabd21
fffabd21
fffabd21
fffabd21
fffabd21
fffabd21
fffabd21
fffabd21
fffabd21
fffabd21
fffabd21
fffabd21
fffabd21
fffabd21
fffabd21
fffabd21
fffabd21
fffabd21
fffabd21
fffabd21
fffabd21
fffabd21
fffabd21
fffabd21
fffabd21
fffabd21
fffabd21
fffabd21
fffabd21
fffabd21
fffabd21
fffabd21
fffabd21
fffabd21
fffabd21
fffabd21
fffabd21
fffabd21
fffabd21
fffabd21
fffabd21
fffabd21
fffabd21
fffabd21
fffabd21
fffabd21
fffabd21
fffabd21
fffabd21
fffabd21
fffabd21
fffabd21
fffabd21
fffabd21
fffabd21
fffabd21
fffabd21
fffabd21
fffabd21
fffabd21
fffabd21
fffabd21
fffabd21
fffabd21
fffabd21
fffabd21
fffabd21
fffabd21
fffabd21
fffabd21
fffabd21
fffb8c56
fffb8c56
fffb8c56
fffb8c56
fffb8c56
fffb8c56
fffb8c56
fffb8c56
fffb8c56
fffb8c56
fffb8c56
fffb8c56
fffb8c56
fffb8c56
fffb8c56
fffb8c56
fffb8c56
fffb8c56
fffb8c56
fffb8c56
fffb8c56
fffb8c56
fffb8c56
fffb8c56
fffb8c56
fffb8c56
fffb8c56
fffb8c56
fffb8c56
fffb8c56
fffb8c56
fffb8c56
fffb8c56
fffb8c56
fffb8c56
fffb8c56
fffb8c56
fffb8c56
fffb8c56
fffb8c56
fffb8c56
fffb8c56
fffb8c56
fffb8c56
fffb8c56
fffb8c56
fffb8c56
fffb8c56
fffb8c56
fffb8c56
fffb8c56
fffb8c56
fffb8c56
fffb8c56
fffb8c56
fffb8c56
fffb8c56
fffb8c56
fffb8c56
fffb8c56
fffb8c56
fffb8c56
fffb8c56
fffb8c56
fffb8c56
fffb8c56
fffb8c56
fffb8c56
fffb8c56
fffb8c56
fffb8c56
fffb8c56
fffb8c56
fffb8c56
fffb8c56
fffb8c56
fffb8c56
fffb8c56
fffb8c56
fffb8c56
fffb8c56
fffb8c56
fffb8c56
fffb8c56
fffb8c56
fffb8c56
fffb8c56
fffb8c56
fffb8c56
fffb8c56
fffb8c56
fffb8c56
fffb8c56
fffb8c56
fffb8c56
fffb8c56
fffb8c56
fffb8c56
fffb8c56
fffb8c56
fffb8c56
fffb8c56
fffb8c56
fffb8c56
fffb8c56
fffb8c56
fffb8c56
fffb8c56
fffb8c56
fffb8c56
fffb8c56
fffb8c56
fffb8c56
fffb8c56
fffb8c56
fffb8c56
fffb8c56
fffb8c56
fffb8c56
fffb8c56
fffb8c56
fffb8c56
fffb8c56
fffb8c56
fffb8c56
fffb8c56
fffb8c56
fffb8c56
fffb8c56
fffb8c56
fffb8c56
fffb8c56
fffb8c56
fffb8c56
fffb8c56
fffb8c56
fffb8c56
fffb8c56
fffb8c56
fffb8c56
fffb8c56
fffb8c56
fffb8c56
fffb8c56
fffb8c56
fffb8c56
fffb8c56
fffb8c56
fffb8c56
fffb8c56
fffb8c56
fffb8c56
fffb8c56
fffb8c56
fffb8c56
fffb8c56
fffb8c56
fffb8c56
fffb8c56
fffb8c56
fffb8c56
fffb8c56
fffb8c56
fffb8c56
fffb8c56
fffb8c56
fffb8c56
fffb8c56
fffb8c56
fffb8c56
fffb8c56
fffb8c56
fffb8c56
fffb8c56
fffb8c56
fffb8c56
fffb8c56
fffb8c56
fffb8c56
fffb8c56
fffb8c56
fffb8c56
fffb8c56
fffb8c56
fffb8c56
fffb8c56
fffb8c56
fffb8c56
fffb8c56
fffb8c56
fffb8c56
fffb8c56
fffb8c56
fffb8c56
fffb8c56
fffb8c56
fff9fa84
fff9fa84
fff9fa84
fff9fa84
fff9fa84
fff9fa84
fff9fa84
fff9fa84
fff9fa84
fff9fa84
fff9fa84
fff9fa84
fff9fa84
fff9fa84
fff9fa84
fff9fa84
fff9fa84
fff9fa84
fff9fa84
fff9fa84
fff9fa84
fff9fa84
fff9fa84
fff9fa84
fff9fa84
fff9fa84
fff9fa84
fff9fa84
fff9fa84
fff9fa84
fff9fa84
fff9fa84
fff9fa84
fff9fa84
fff9fa84
fff9fa84
fff9fa84
fff9fa84
fff9fa84
fff9fa84
fff9fa84
fff9fa84
fff9fa84
fff9fa84
fff9fa84
fff9fa84
fff9fa84
fff9fa84
fff9fa84
fff9fa84
fff9fa84
fff9fa84
fff9fa84
fff9fa84
fff9fa84
fff9fa84
fff9fa84
fff9fa84
fff9fa84
fff9fa84
fff9fa84
fff9fa84
fff9fa84
fff9fa84
fff9fa84
fff9fa84
fff9fa84
fff9fa84
fff9fa84
fff9fa84
fff9fa84
fff9fa84
fff9fa84
fff9fa84
fff9fa84
fff9fa84
fff9fa84
fff9fa84
fff9fa84
fff9fa84
fff9fa84
fff9fa84
fff9fa84
fff9fa84
fff9fa84
fff9fa84
fff9fa84
fff9fa84
fff9fa84
fff9fa84
fff9fa84
fff9fa84
fff9fa84
fff9fa84
fff9fa84
fff9fa84
fff9fa84
fff9fa84
fff9fa84
fff9fa84
fff9fa84
fff9fa84
fff9fa84
fff9fa84
fff9fa84
fff9fa84
fff9fa84
fff9fa84
fff9fa84
fff9fa84
fff9fa84
fff9fa84
fff9fa84
fff9fa84
fff9fa84
fff9fa84
fff9fa84
fff9fa84
fff9fa84
fff9fa84
fff9fa84
fff9fa84
fff9fa84
fff9fa84
fff9fa84
fff9fa84
fff9fa84
fff9fa84
fff9fa84
fff9fa84
fff9fa84
fff9fa84
fff9fa84
fff9fa84
fff9fa84
fff9fa84
fff9fa84
fff9fa84
fff9fa84
fff9fa84
fff9fa84
fff9fa84
fff9fa84
fff9fa84
fff9fa84
fff9fa84
fff9fa84
fff9fa84
fff9fa84
fff9fa84
fff9fa84
fff9fa84
fff9fa84
fff9fa84
fff9fa84
fff9fa84
fff9fa84
fff9fa84
fff9fa84
fff9fa84
fff9fa84
fff9fa84
fff9fa84
fff9fa84
fff9fa84
fff9fa84
fff9fa84
fff9fa84
fff9fa84
fff9fa84
fff9fa84
fff9fa84
fff9fa84
fff9fa84
fff9fa84
fff9fa84
fff9fa84
fff9fa84
fff9fa84
fff9fa84
fff9fa84
fff9fa84
fff9fa84
fff9fa84
fff9fa84
fff9fa84
fff9fa84
fff9fa84
fff9fa84
fff9fa84
fff9fa84
fff9fa84
fff9fa84
fff9fa84
fff9fa84
fff9fa84
fff9405c
fff9405c
fff9405c
fff9405c
fff9405c
fff9405c
fff9405c
fff9405c
fff9405c
fff9405c
fff9405c
fff9405c
fff9405c
fff9405c
fff9405c
fff9405c
fff9405c
fff9405c
fff9405c
fff9405c
fff9405c
fff9405c
fff9405c
fff9405c
fff9405c
fff9405c
fff9405c
fff9405c
fff9405c
fff9405c
fff9405c
fff9405c
fff9405c
fff9405c
fff9405c
fff9405c
fff9405c
fff9405c
fff9405c
fff9405c
fff9405c
fff9405c
fff9405c
fff9405c
fff9405c
fff9405c
fff9405c
fff9405c
fff9405c
fff9405c
fff9405c
fff9405c
fff9405c
fff9405c
fff9405c
fff9405c
fff9405c
fff9405c
fff9405c
fff9405c
fff9405c
fff9405c
fff9405c
fff9405c
fff9405c
fff9405c
fff9405c
fff9405c
fff9405c
fff9405c
fff9405c
fff9405c
fff9405c
fff9405c
fff9405c
fff9405c
fff9405c
fff9405c
fff9405c
fff9405c
fff9405c
fff9405c
fff9405c
fff9405c
fff9405c
fff9405c
fff9405c
fff9405c
fff9405c
fff9405c
fff9405c
fff9405c
fff9405c
fff9405c
fff9405c
fff9405c
fff9405c
fff9405c
fff9405c
fff9405c
fff9405c
fff9405c
fff9405c
fff9405c
fff9405c
fff9405c
fff9405c
fff9405c
fff9405c
fff9405c
fff9405c
fff9405c
fff9405c
fff9405c
fff9405c
fff9405c
fff9405c
fff9405c
fff9405c
fff9405c
fff9405c
fff9405c
fff9405c
fff9405c
fff9405c
fff9405c
fff9405c
fff9405c
fff9405c
fff9405c
fff9405c
fff9405c
fff9405c
fff9405c
fff9405c
fff9405c
fff9405c
fff9405c
fff9405c
fff9405c
fff9405c
fff9405c
fff9405c
fff9405c
fff9405c
fff9405c
fff9405c
fff9405c
fff9405c
fff9405c
fff9405c
fff9405c
fff9405c
fff9405c
fff9405c
fff9405c
fff9405c
fff9405c
fff9405c
fff9405c
fff9405c
fff9405c
fff9405c
fff9405c
fff9405c
fff9405c
fff9405c
fff9405c
fff9405c
fff9405c
fff9405c
fff9405c
fff9405c
fff9405c
fff9405c
fff9405c
fff9405c
fff9405c
fff9405c
fff9405c
fff9405c
fff9405c
fff9405c
fff9405c
fff9405c
fff9405c
fff9405c
fff9405c
fff9405c
fff9405c
fff9405c
fff9405c
fff9405c
fff9405c
fff9405c
fff9405c
fffce3e5
fffce3e5
fffce3e5
fffce3e5
fffce3e5
fffce3e5
fffce3e5
fffce3e5
fffce3e5
fffce3e5
fffce3e5
fffce3e5
fffce3e5
fffce3e5
fffce3e5
fffce3e5
fffce3e5
fffce3e5
fffce3e5
fffce3e5
fffce3e5
fffce3e5
fffce3e5
fffce3e5
fffce3e5
fffce3e5
fffce3e5
fffce3e5
fffce3e5
fffce3e5
fffce3e5
fffce3e5
fffce3e5
fffce3e5
fffce3e5
fffce3e5
fffce3e5
fffce3e5
fffce3e5
fffce3e5
fffce3e5
fffce3e5
fffce3e5
fffce3e5
fffce3e5
fffce3e5
fffce3e5
fffce3e5
fffce3e5
fffce3e5
fffce3e5
fffce3e5
fffce3e5
fffce3e5
fffce3e5
fffce3e5
fffce3e5
fffce3e5
fffce3e5
fffce3e5
fffce3e5
fffce3e5
fffce3e5
fffce3e5
fffce3e5
fffce3e5
fffce3e5
fffce3e5
fffce3e5
fffce3e5
fffce3e5
fffce3e5
fffce3e5
fffce3e5
fffce3e5
fffce3e5
fffce3e5
fffce3e5
fffce3e5
fffce3e5
fffce3e5
fffce3e5
fffce3e5
fffce3e5
fffce3e5
fffce3e5
fffce3e5
fffce3e5
fffce3e5
fffce3e5
fffce3e5
fffce3e5
fffce3e5
fffce3e5
fffce3e5
fffce3e5
fffce3e5
fffce3e5
fffce3e5
fffce3e5
fffce3e5
fffce3e5
fffce3e5
fffce3e5
fffce3e5
fffce3e5
fffce3e5
fffce3e5
fffce3e5
fffce3e5
fffce3e5
fffce3e5
fffce3e5
fffce3e5
fffce3e5
fffce3e5
fffce3e5
fffce3e5
fffce3e5
fffce3e5
fffce3e5
fffce3e5
fffce3e5
fffce3e5
fffce3e5
fffce3e5
fffce3e5
fffce3e5
fffce3e5
fffce3e5
fffce3e5
fffce3e5
fffce3e5
fffce3e5
fffce3e5
fffce3e5
fffce3e5
fffce3e5
fffce3e5
fffce3e5
fffce3e5
fffce3e5
fffce3e5
fffce3e5
fffce3e5
fffce3e5
fffce3e5
fffce3e5
fffce3e5
fffce3e5
fffce3e5
fffce3e5
fffce3e5
fffce3e5
fffce3e5
fffce3e5
fffce3e5
fffce3e5
fffce3e5
fffce3e5
fffce3e5
fffce3e5
fffce3e5
fffce3e5
fffce3e5
fffce3e5
fffce3e5
fffce3e5
fffce3e5
fffce3e5
fffce3e5
fffce3e5
fffce3e5
fffce3e5
fffce3e5
fffce3e5
fffce3e5
fffce3e5
fffce3e5
fffce3e5
fffce3e5
fffce3e5
fffce3e5
fffce3e5
fffce3e5
fffce3e5
fffce3e5
fffce3e5
fffce3e5
fffce3e5
fffce3e5
fffce3e5
fffce3e5
fffce3e5
fffce3e5
fffce3e5
fffabee9
fffabee9
fffabee9
fffabee9
fffabee9
fffabee9
fffabee9
fffabee9
fffabee9
fffabee9
fffabee9
fffabee9
fffabee9
fffabee9
fffabee9
fffabee9
fffabee9
fffabee9
fffabee9
fffabee9
fffabee9
fffabee9
fffabee9
fffabee9
fffabee9
fffabee9
fffabee9
fffabee9
fffabee9
fffabee9
fffabee9
fffabee9
fffabee9
fffabee9
fffabee9
fffabee9
fffabee9
fffabee9
fffabee9
fffabee9
fffabee9
fffabee9
fffabee9
fffabee9
fffabee9
fffabee9
fffabee9
fffabee9
fffabee9
fffabee9
fffabee9
fffabee9
fffabee9
fffabee9
fffabee9
fffabee9
fffabee9
fffabee9
fffabee9
fffabee9
fffabee9
fffabee9
fffabee9
fffabee9
fffabee9
fffabee9
fffabee9
fffabee9
fffabee9
fffabee9
fffabee9
fffabee9
fffabee9
fffabee9
fffabee9
fffabee9
fffabee9
fffabee9
fffabee9
fffabee9
fffabee9
fffabee9
fffabee9
fffabee9
fffabee9
fffabee9
fffabee9
fffabee9
fffabee9
fffabee9
fffabee9
fffabee9
fffabee9
fffabee9
fffabee9
fffabee9
fffabee9
fffabee9
fffabee9
fffabee9
fffabee9
fffabee9
fffabee9
fffabee9
fffabee9
fffabee9
fffabee9
fffabee9
fffabee9
fffabee9
fffabee9
fffabee9
fffabee9
fffabee9
fffabee9
fffabee9
fffabee9
fffabee9
fffabee9
fffabee9
fffabee9
fffabee9
fffabee9
fffabee9
fffabee9
fffabee9
fffabee9
fffabee9
fffabee9
fffabee9
fffabee9
fffabee9
fffabee9
fffabee9
fffabee9
fffabee9
fffabee9
fffabee9
fffabee9
fffabee9
fffabee9
fffabee9
fffabee9
fffabee9
fffabee9
fffabee9
fffabee9
fffabee9
fffabee9
fffabee9
fffabee9
fffabee9
fffabee9
fffabee9
fffabee9
fffabee9
fffabee9
fffabee9
fffabee9
fffabee9
fffabee9
fffabee9
fffabee9
fffabee9
fffabee9
fffabee9
fffabee9
fffabee9
fffabee9
fffabee9
fffabee9
fffabee9
fffabee9
fffabee9
fffabee9
fffabee9
fffabee9
fffabee9
fffabee9
fffabee9
fffabee9
fffabee9
fffabee9
fffabee9
fffabee9
fffabee9
fffabee9
fffabee9
fffabee9
fffabee9
fffabee9
fffabee9
fffabee9
fffabee9
fffabee9
fffabee9
fffa5aa7
fffa5aa7
fffa5aa7
fffa5aa7
fffa5aa7
fffa5aa7
fffa5aa7
fffa5aa7
fffa5aa7
fffa5aa7
fffa5aa7
fffa5aa7
fffa5aa7
fffa5aa7
fffa5aa7
fffa5aa7
fffa5aa7
fffa5aa7
fffa5aa7
fffa5aa7
fffa5aa7
fffa5aa7
fffa5aa7
fffa5aa7
fffa5aa7
fffa5aa7
fffa5aa7
fffa5aa7
fffa5aa7
fffa5aa7
fffa5aa7
fffa5aa7
fffa5aa7
fffa5aa7
fffa5aa7
fffa5aa7
fffa5aa7
fffa5aa7
fffa5aa7
fffa5aa7
fffa5aa7
fffa5aa7
fffa5aa7
fffa5aa7
fffa5aa7
fffa5aa7
fffa5aa7
fffa5aa7
fffa5aa7
fffa5aa7
fffa5aa7
fffa5aa7
fffa5aa7
fffa5aa7
fffa5aa7
fffa5aa7
fffa5aa7
fffa5aa7
fffa5aa7
fffa5aa7
fffa5aa7
fffa5aa7
fffa5aa7
fffa5aa7
fffa5aa7
fffa5aa7
fffa5aa7
fffa5aa7
fffa5aa7
fffa5aa7
fffa5aa7
fffa5aa7
fffa5aa7
fffa5aa7
fffa5aa7
fffa5aa7
fffa5aa7
fffa5aa7
fffa5aa7
fffa5aa7
fffa5aa7
fffa5aa7
fffa5aa7
fffa5aa7
fffa5aa7
fffa5aa7
fffa5aa7
fffa5aa7
fffa5aa7
fffa5aa7
fffa5aa7
fffa5aa7
fffa5aa7
fffa5aa7
fffa5aa7
fffa5aa7
fffa5aa7
fffa5aa7
fffa5aa7
fffa5aa7
fffa5aa7
fffa5aa7
fffa5aa7
fffa5aa7
fffa5aa7
fffa5aa7
fffa5aa7
fffa5aa7
fffa5aa7
fffa5aa7
fffa5aa7
fffa5aa7
fffa5aa7
fffa5aa7
fffa5aa7
fffa5aa7
fffa5aa7
fffa5aa7
fffa5aa7
fffa5aa7
fffa5aa7
fffa5aa7
fffa5aa7
fffa5aa7
fffa5aa7
fffa5aa7
fffa5aa7
fffa5aa7
fffa5aa7
fffa5aa7
fffa5aa7
fffa5aa7
fffa5aa7
fffa5aa7
fffa5aa7
fffa5aa7
fffa5aa7
fffa5aa7
fffa5aa7
fffa5aa7
fffa5aa7
fffa5aa7
fffa5aa7
fffa5aa7
fffa5aa7
fffa5aa7
fffa5aa7
fffa5aa7
fffa5aa7
fffa5aa7
fffa5aa7
fffa5aa7
fffa5aa7
fffa5aa7
fffa5aa7
fffa5aa7
fffa5aa7
fffa5aa7
fffa5aa7
fffa5aa7
fffa5aa7
fffa5aa7
fffa5aa7
fffa5aa7
fffa5aa7
fffa5aa7
fffa5aa7
fffa5aa7
fffa5aa7
fffa5aa7
fffa5aa7
fffa5aa7
fffa5aa7
fffa5aa7
fffa5aa7
fffa5aa7
fffa5aa7
fffa5aa7
fffa5aa7
fffa5aa7
fffa5aa7
fffa5aa7
fffa5aa7
fffa5aa7
fffa5aa7
fffa5aa7
fffa5aa7
fffa5aa7
fffa5aa7
fffa5aa7
fffa5aa7
fffa5aa7
fffa5aa7
fffa5aa7
fffa5aa7
fffa5aa7
fffe84b6
fffe84b6
fffe84b6
fffe84b6
fffe84b6
fffe84b6
fffe84b6
fffe84b6
fffe84b6
fffe84b6
fffe84b6
fffe84b6
fffe84b6
fffe84b6
fffe84b6
fffe84b6
fffe84b6
fffe84b6
fffe84b6
fffe84b6
fffe84b6
fffe84b6
fffe84b6
fffe84b6
fffe84b6
fffe84b6
fffe84b6
fffe84b6
fffe84b6
fffe84b6
fffe84b6
fffe84b6
fffe84b6
fffe84b6
fffe84b6
fffe84b6
fffe84b6
fffe84b6
fffe84b6
fffe84b6
fffe84b6
fffe84b6
fffe84b6
fffe84b6
fffe84b6
fffe84b6
fffe84b6
fffe84b6
fffe84b6
fffe84b6
fffe84b6
fffe84b6
fffe84b6
fffe84b6
fffe84b6
fffe84b6
fffe84b6
fffe84b6
fffe84b6
fffe84b6
fffe84b6
fffe84b6
fffe84b6
fffe84b6
fffe84b6
fffe84b6
fffe84b6
fffe84b6
fffe84b6
fffe84b6
fffe84b6
fffe84b6
fffe84b6
fffe84b6
fffe84b6
fffe84b6
fffe84b6
fffe84b6
fffe84b6
fffe84b6
fffe84b6
fffe84b6
fffe84b6
fffe84b6
fffe84b6
fffe84b6
fffe84b6
fffe84b6
fffe84b6
fffe84b6
fffe84b6
fffe84b6
fffe84b6
fffe84b6
fffe84b6
fffe84b6
fffe84b6
fffe84b6
fffe84b6
fffe84b6
fffe84b6
fffe84b6
fffe84b6
fffe84b6
fffe84b6
fffe84b6
fffe84b6
fffe84b6
fffe84b6
fffe84b6
fffe84b6
fffe84b6
fffe84b6
fffe84b6
fffe84b6
fffe84b6
fffe84b6
fffe84b6
fffe84b6
fffe84b6
fffe84b6
fffe84b6
fffe84b6
fffe84b6
fffe84b6
fffe84b6
fffe84b6
fffe84b6
fffe84b6
fffe84b6
fffe84b6
fffe84b6
fffe84b6
fffe84b6
fffe84b6
fffe84b6
fffe84b6
fffe84b6
fffe84b6
fffe84b6
fffe84b6
fffe84b6
fffe84b6
fffe84b6
fffe84b6
fffe84b6
fffe84b6
fffe84b6
fffe84b6
fffe84b6
fffe84b6
fffe84b6
fffe84b6
fffe84b6
fffe84b6
fffe84b6
fffe84b6
fffe84b6
fffe84b6
fffe84b6
fffe84b6
fffe84b6
fffe84b6
fffe84b6
fffe84b6
fffe84b6
fffe84b6
fffe84b6
fffe84b6
fffe84b6
fffe84b6
fffe84b6
fffe84b6
fffe84b6
fffe84b6
fffe84b6
fffe84b6
fffe84b6
fffe84b6
fffe84b6
fffe84b6
fffe84b6
fffe84b6
fffe84b6
fffe84b6
fffe84b6
fffe84b6
fffe84b6
fffe84b6
fffe84b6
fffe84b6
fffe84b6
fffe84b6
fffe84b6
fffe84b6
fffe84b6
fff60f23
fff60f23
fff60f23
fff60f23
fff60f23
fff60f23
fff60f23
fff60f23
fff60f23
fff60f23
fff60f23
fff60f23
fff60f23
fff60f23
fff60f23
fff60f23
fff60f23
fff60f23
fff60f23
fff60f23
fff60f23
fff60f23
fff60f23
fff60f23
fff60f23
fff60f23
fff60f23
fff60f23
fff60f23
fff60f23
fff60f23
fff60f23
fff60f23
fff60f23
fff60f23
fff60f23
fff60f23
fff60f23
fff60f23
fff60f23
fff60f23
fff60f23
fff60f23
fff60f23
fff60f23
fff60f23
fff60f23
fff60f23
fff60f23
fff60f23
fff60f23
fff60f23
fff60f23
fff60f23
fff60f23
fff60f23
fff60f23
fff60f23
fff60f23
fff60f23
fff60f23
fff60f23
fff60f23
fff60f23
fff60f23
fff60f23
fff60f23
fff60f23
fff60f23
fff60f23
fff60f23
fff60f23
fff60f23
fff60f23
fff60f23
fff60f23
fff60f23
fff60f23
fff60f23
fff60f23
fff60f23
fff60f23
fff60f23
fff60f23
fff60f23
fff60f23
fff60f23
fff60f23
fff60f23
fff60f23
fff60f23
fff60f23
fff60f23
fff60f23
fff60f23
fff60f23
fff60f23
fff60f23
fff60f23
fff60f23
fff60f23
fff60f23
fff60f23
fff60f23
fff60f23
fff60f23
fff60f23
fff60f23
fff60f23
fff60f23
fff60f23
fff60f23
fff60f23
fff60f23
fff60f23
fff60f23
fff60f23
fff60f23
fff60f23
fff60f23
fff60f23
fff60f23
fff60f23
fff60f23
fff60f23
fff60f23
fff60f23
fff60f23
fff60f23
fff60f23
fff60f23
fff60f23
fff60f23
fff60f23
fff60f23
fff60f23
fff60f23
fff60f23
fff60f23
fff60f23
fff60f23
fff60f23
fff60f23
fff60f23
fff60f23
fff60f23
fff60f23
fff60f23
fff60f23
fff60f23
fff60f23
fff60f23
fff60f23
fff60f23
fff60f23
fff60f23
fff60f23
fff60f23
fff60f23
fff60f23
fff60f23
fff60f23
fff60f23
fff60f23
fff60f23
fff60f23
fff60f23
fff60f23
fff60f23
fff60f23
fff60f23
fff60f23
fff60f23
fff60f23
fff60f23
fff60f23
fff60f23
fff60f23
fff60f23
fff60f23
fff60f23
fff60f23
fff60f23
fff60f23
fff60f23
fff60f23
fff60f23
fff60f23
fff60f23
fff60f23
fff60f23
fff60f23
fff60f23
fff60f23
fff60f23
fff60f23
fffd070e
fffd070e
fffd070e
fffd070e
fffd070e
fffd070e
fffd070e
fffd070e
fffd070e
fffd070e
fffd070e
fffd070e
fffd070e
fffd070e
fffd070e
fffd070e
fffd070e
fffd070e
fffd070e
fffd070e
fffd070e
fffd070e
fffd070e
fffd070e
fffd070e
fffd070e
fffd070e
fffd070e
fffd070e
fffd070e
fffd070e
fffd070e
fffd070e
fffd070e
fffd070e
fffd070e
fffd070e
fffd070e
fffd070e
fffd070e
fffd070e
fffd070e
fffd070e
fffd070e
fffd070e
fffd070e
fffd070e
fffd070e
fffd070e
fffd070e
fffd070e
fffd070e
fffd070e
fffd070e
fffd070e
fffd070e
fffd070e
fffd070e
fffd070e
fffd070e
fffd070e
fffd070e
fffd070e
fffd070e
fffd070e
fffd070e
fffd070e
fffd070e
fffd070e
fffd070e
fffd070e
fffd070e
fffd070e
fffd070e
fffd070e
fffd070e
fffd070e
fffd070e
fffd070e
fffd070e
fffd070e
fffd070e
fffd070e
fffd070e
fffd070e
fffd070e
fffd070e
fffd070e
fffd070e
fffd070e
fffd070e
fffd070e
fffd070e
fffd070e
fffd070e
fffd070e
fffd070e
fffd070e
fffd070e
fffd070e
fffd070e
fffd070e
fffd070e
fffd070e
fffd070e
fffd070e
fffd070e
fffd070e
fffd070e
fffd070e
fffd070e
fffd070e
fffd070e
fffd070e
fffd070e
fffd070e
fffd070e
fffd070e
fffd070e
fffd070e
fffd070e
fffd070e
fffd070e
fffd070e
fffd070e
fffd070e
fffd070e
fffd070e
fffd070e
fffd070e
fffd070e
fffd070e
fffd070e
fffd070e
fffd070e
fffd070e
fffd070e
fffd070e
fffd070e
fffd070e
fffd070e
fffd070e
fffd070e
fffd070e
fffd070e
fffd070e
fffd070e
fffd070e
fffd070e
fffd070e
fffd070e
fffd070e
fffd070e
fffd070e
fffd070e
fffd070e
fffd070e
fffd070e
fffd070e
fffd070e
fffd070e
fffd070e
fffd070e
fffd070e
fffd070e
fffd070e
fffd070e
fffd070e
fffd070e
fffd070e
fffd070e
fffd070e
fffd070e
fffd070e
fffd070e
fffd070e
fffd070e
fffd070e
fffd070e
fffd070e
fffd070e
fffd070e
fffd070e
fffd070e
fffd070e
fffd070e
fffd070e
fffd070e
fffd070e
fffd070e
fffd070e
fffd070e
fffd070e
fffd070e
fffd070e
fffd070e
fff890f2
fff890f2
fff890f2
fff890f2
fff890f2
fff890f2
fff890f2
fff890f2
fff890f2
fff890f2
fff890f2
fff890f2
fff890f2
fff890f2
fff890f2
fff890f2
fff890f2
fff890f2
fff890f2
fff890f2
fff890f2
fff890f2
fff890f2
fff890f2
fff890f2
fff890f2
fff890f2
fff890f2
fff890f2
fff890f2
fff890f2
fff890f2
fff890f2
fff890f2
fff890f2
fff890f2
fff890f2
fff890f2
fff890f2
fff890f2
fff890f2
fff890f2
fff890f2
fff890f2
fff890f2
fff890f2
fff890f2
fff890f2
fff890f2
fff890f2
fff890f2
fff890f2
fff890f2
fff890f2
fff890f2
fff890f2
fff890f2
fff890f2
fff890f2
fff890f2
fff890f2
fff890f2
fff890f2
fff890f2
fff890f2
fff890f2
fff890f2
fff890f2
fff890f2
fff890f2
fff890f2
fff890f2
fff890f2
fff890f2
fff890f2
fff890f2
fff890f2
fff890f2
fff890f2
fff890f2
fff890f2
fff890f2
fff890f2
fff890f2
fff890f2
fff890f2
fff890f2
fff890f2
fff890f2
fff890f2
fff890f2
fff890f2
fff890f2
fff890f2
fff890f2
fff890f2
fff890f2
fff890f2
fff890f2
fff890f2
fff890f2
fff890f2
fff890f2
fff890f2
fff890f2
fff890f2
fff890f2
fff890f2
fff890f2
fff890f2
fff890f2
fff890f2
fff890f2
fff890f2
fff890f2
fff890f2
fff890f2
fff890f2
fff890f2
fff890f2
fff890f2
fff890f2
fff890f2
fff890f2
fff890f2
fff890f2
fff890f2
fff890f2
fff890f2
fff890f2
fff890f2
fff890f2
fff890f2
fff890f2
fff890f2
fff890f2
fff890f2
fff890f2
fff890f2
fff890f2
fff890f2
fff890f2
fff890f2
fff890f2
fff890f2
fff890f2
fff890f2
fff890f2
fff890f2
fff890f2
fff890f2
fff890f2
fff890f2
fff890f2
fff890f2
fff890f2
fff890f2
fff890f2
fff890f2
fff890f2
fff890f2
fff890f2
fff890f2
fff890f2
fff890f2
fff890f2
fff890f2
fff890f2
fff890f2
fff890f2
fff890f2
fff890f2
fff890f2
fff890f2
fff890f2
fff890f2
fff890f2
fff890f2
fff890f2
fff890f2
fff890f2
fff890f2
fff890f2
fff890f2
fff890f2
fff890f2
fff890f2
fff890f2
fff890f2
fff890f2
fff890f2
fff890f2
fff890f2
fff890f2
fff890f2
fff890f2
fffb9bd3
fffb9bd3
fffb9bd3
fffb9bd3
fffb9bd3
fffb9bd3
fffb9bd3
fffb9bd3
fffb9bd3
fffb9bd3
fffb9bd3
fffb9bd3
fffb9bd3
fffb9bd3
fffb9bd3
fffb9bd3
fffb9bd3
fffb9bd3
fffb9bd3
fffb9bd3
fffb9bd3
fffb9bd3
fffb9bd3
fffb9bd3
fffb9bd3
fffb9bd3
fffb9bd3
fffb9bd3
fffb9bd3
fffb9bd3
fffb9bd3
fffb9bd3
fffb9bd3
fffb9bd3
fffb9bd3
fffb9bd3
fffb9bd3
fffb9bd3
fffb9bd3
fffb9bd3
fffb9bd3
fffb9bd3
fffb9bd3
fffb9bd3
fffb9bd3
fffb9bd3
fffb9bd3
fffb9bd3
fffb9bd3
fffb9bd3
fffb9bd3
fffb9bd3
fffb9bd3
fffb9bd3
fffb9bd3
fffb9bd3
fffb9bd3
fffb9bd3
fffb9bd3
fffb9bd3
fffb9bd3
fffb9bd3
fffb9bd3
fffb9bd3
fffb9bd3
fffb9bd3
fffb9bd3
fffb9bd3
fffb9bd3
fffb9bd3
fffb9bd3
fffb9bd3
fffb9bd3
fffb9bd3
fffb9bd3
fffb9bd3
fffb9bd3
fffb9bd3
fffb9bd3
fffb9bd3
fffb9bd3
fffb9bd3
fffb9bd3
fffb9bd3
fffb9bd3
fffb9bd3
fffb9bd3
fffb9bd3
fffb9bd3
fffb9bd3
fffb9bd3
fffb9bd3
fffb9bd3
fffb9bd3
fffb9bd3
fffb9bd3
fffb9bd3
fffb9bd3
fffb9bd3
fffb9bd3
fffb9bd3
fffb9bd3
fffb9bd3
fffb9bd3
fffb9bd3
fffb9bd3
fffb9bd3
fffb9bd3
fffb9bd3
fffb9bd3
fffb9bd3
fffb9bd3
fffb9bd3
fffb9bd3
fffb9bd3
fffb9bd3
fffb9bd3
fffb9bd3
fffb9bd3
fffb9bd3
fffb9bd3
fffb9bd3
fffb9bd3
fffb9bd3
fffb9bd3
fffb9bd3
fffb9bd3
fffb9bd3
fffb9bd3
fffb9bd3
fffb9bd3
fffb9bd3
fffb9bd3
fffb9bd3
fffb9bd3
fffb9bd3
fffb9bd3
fffb9bd3
fffb9bd3
fffb9bd3
fffb9bd3
fffb9bd3
fffb9bd3
fffb9bd3
fffb9bd3
fffb9bd3
fffb9bd3
fffb9bd3
fffb9bd3
fffb9bd3
fffb9bd3
fffb9bd3
fffb9bd3
fffb9bd3
fffb9bd3
fffb9bd3
fffb9bd3
fffb9bd3
fffb9bd3
fffb9bd3
fffb9bd3
fffb9bd3
fffb9bd3
fffb9bd3
fffb9bd3
fffb9bd3
fffb9bd3
fffb9bd3
fffb9bd3
fffb9bd3
fffb9bd3
fffb9bd3
fffb9bd3
fffb9bd3
fffb9bd3
fffb9bd3
fffb9bd3
fffb9bd3
fffb9bd3
fffb9bd3
fffb9bd3
fffb9bd3
fffb9bd3
fffb9bd3
fffb9bd3
fffb9bd3
fffb9bd3
fffb9bd3
fffb9bd3
fffb9bd3
fffb9bd3
fffb9bd3
fffb9bd3
fffb9bd3
fffb9bd3
fffb9bd3
fff97bd8
fff97bd8
fff97bd8
fff97bd8
fff97bd8
fff97bd8
fff97bd8
fff97bd8
fff97bd8
fff97bd8
fff97bd8
fff97bd8
fff97bd8
fff97bd8
fff97bd8
fff97bd8
fff97bd8
fff97bd8
fff97bd8
fff97bd8
fff97bd8
fff97bd8
fff97bd8
fff97bd8
fff97bd8
fff97bd8
fff97bd8
fff97bd8
fff97bd8
fff97bd8
fff97bd8
fff97bd8
fff97bd8
fff97bd8
fff97bd8
fff97bd8
fff97bd8
fff97bd8
fff97bd8
fff97bd8
fff97bd8
fff97bd8
fff97bd8
fff97bd8
fff97bd8
fff97bd8
fff97bd8
fff97bd8
fff97bd8
fff97bd8
fff97bd8
fff97bd8
fff97bd8
fff97bd8
fff97bd8
fff97bd8
fff97bd8
fff97bd8
fff97bd8
fff97bd8
fff97bd8
fff97bd8
fff97bd8
fff97bd8
fff97bd8
fff97bd8
fff97bd8
fff97bd8
fff97bd8
fff97bd8
fff97bd8
fff97bd8
fff97bd8
fff97bd8
fff97bd8
fff97bd8
fff97bd8
fff97bd8
fff97bd8
fff97bd8
fff97bd8
fff97bd8
fff97bd8
fff97bd8
fff97bd8
fff97bd8
fff97bd8
fff97bd8
fff97bd8
fff97bd8
fff97bd8
fff97bd8
fff97bd8
fff97bd8
fff97bd8
fff97bd8
fff97bd8
fff97bd8
fff97bd8
fff97bd8
fff97bd8
fff97bd8
fff97bd8
fff97bd8
fff97bd8
fff97bd8
fff97bd8
fff97bd8
fff97bd8
fff97bd8
fff97bd8
fff97bd8
fff97bd8
fff97bd8
fff97bd8
fff97bd8
fff97bd8
fff97bd8
fff97bd8
fff97bd8
fff97bd8
fff97bd8
fff97bd8
fff97bd8
fff97bd8
fff97bd8
fff97bd8
fff97bd8
fff97bd8
fff97bd8
fff97bd8
fff97bd8
fff97bd8
fff97bd8
fff97bd8
fff97bd8
fff97bd8
fff97bd8
fff97bd8
fff97bd8
fff97bd8
fff97bd8
fff97bd8
fff97bd8
fff97bd8
fff97bd8
fff97bd8
fff97bd8
fff97bd8
fff97bd8
fff97bd8
fff97bd8
fff97bd8
fff97bd8
fff97bd8
fff97bd8
fff97bd8
fff97bd8
fff97bd8
fff97bd8
fff97bd8
fff97bd8
fff97bd8
fff97bd8
fff97bd8
fff97bd8
fff97bd8
fff97bd8
fff97bd8
fff97bd8
fff97bd8
fff97bd8
fff97bd8
fff97bd8
fff97bd8
fff97bd8
fff97bd8
fff97bd8
fff97bd8
fff97bd8
fff97bd8
fff97bd8
fff97bd8
fff97bd8
fff97bd8
fff97bd8
fff97bd8
fff97bd8
fff97bd8
fff97bd8
fff97bd8
fff97bd8
fff97bd8
fff97bd8
fff97bd8
fff97bd8
fffc511b
fffc511b
fffc511b
fffc511b
fffc511b
fffc511b
fffc511b
fffc511b
fffc511b
fffc511b
fffc511b
fffc511b
fffc511b
fffc511b
fffc511b
fffc511b
fffc511b
fffc511b
fffc511b
fffc511b
fffc511b
fffc511b
fffc511b
fffc511b
fffc511b
fffc511b
fffc511b
fffc511b
fffc511b
fffc511b
fffc511b
fffc511b
fffc511b
fffc511b
fffc511b
fffc511b
fffc511b
fffc511b
fffc511b
fffc511b
fffc511b
fffc511b
fffc511b
fffc511b
fffc511b
fffc511b
fffc511b
fffc511b
fffc511b
fffc511b
fffc511b
fffc511b
fffc511b
fffc511b
fffc511b
fffc511b
fffc511b
fffc511b
fffc511b
fffc511b
fffc511b
fffc511b
fffc511b
fffc511b
fffc511b
fffc511b
fffc511b
fffc511b
fffc511b
fffc511b
fffc511b
fffc511b
fffc511b
fffc511b
fffc511b
fffc511b
fffc511b
fffc511b
fffc511b
fffc511b
fffc511b
fffc511b
fffc511b
fffc511b
fffc511b
fffc511b
fffc511b
fffc511b
fffc511b
fffc511b
fffc511b
fffc511b
fffc511b
fffc511b
fffc511b
fffc511b
fffc511b
fffc511b
fffc511b
fffc511b
fffc511b
fffc511b
fffc511b
fffc511b
fffc511b
fffc511b
fffc511b
fffc511b
fffc511b
fffc511b
fffc511b
fffc511b
fffc511b
fffc511b
fffc511b
fffc511b
fffc511b
fffc511b
fffc511b
fffc511b
fffc511b
fffc511b
fffc511b
fffc511b
fffc511b
fffc511b
fffc511b
fffc511b
fffc511b
fffc511b
fffc511b
fffc511b
fffc511b
fffc511b
fffc511b
fffc511b
fffc511b
fffc511b
fffc511b
fffc511b
fffc511b
fffc511b
fffc511b
fffc511b
fffc511b
fffc511b
fffc511b
fffc511b
fffc511b
fffc511b
fffc511b
fffc511b
fffc511b
fffc511b
fffc511b
fffc511b
fffc511b
fffc511b
fffc511b
fffc511b
fffc511b
fffc511b
fffc511b
fffc511b
fffc511b
fffc511b
fffc511b
fffc511b
fffc511b
fffc511b
fffc511b
fffc511b
fffc511b
fffc511b
fffc511b
fffc511b
fffc511b
fffc511b
fffc511b
fffc511b
fffc511b
fffc511b
fffc511b
fffc511b
fffc511b
fffc511b
fffc511b
fffc511b
fffc511b
fffc511b
fffc511b
fffc511b
fffc511b
fffc511b
fffc511b
fffc511b
fffc4885
fffc4885
fffc4885
fffc4885
fffc4885
fffc4885
fffc4885
fffc4885
fffc4885
fffc4885
fffc4885
fffc4885
fffc4885
fffc4885
fffc4885
fffc4885
fffc4885
fffc4885
fffc4885
fffc4885
fffc4885
fffc4885
fffc4885
fffc4885
fffc4885
fffc4885
fffc4885
fffc4885
fffc4885
fffc4885
fffc4885
fffc4885
fffc4885
fffc4885
fffc4885
fffc4885
fffc4885
fffc4885
fffc4885
fffc4885
fffc4885
fffc4885
fffc4885
fffc4885
fffc4885
fffc4885
fffc4885
fffc4885
fffc4885
fffc4885
fffc4885
fffc4885
fffc4885
fffc4885
fffc4885
fffc4885
fffc4885
fffc4885
fffc4885
fffc4885
fffc4885
fffc4885
fffc4885
fffc4885
fffc4885
fffc4885
fffc4885
fffc4885
fffc4885
fffc4885
fffc4885
fffc4885
fffc4885
fffc4885
fffc4885
fffc4885
fffc4885
fffc4885
fffc4885
fffc4885
fffc4885
fffc4885
fffc4885
fffc4885
fffc4885
fffc4885
fffc4885
fffc4885
fffc4885
fffc4885
fffc4885
fffc4885
fffc4885
fffc4885
fffc4885
fffc4885
fffc4885
fffc4885
fffc4885
fffc4885
fffc4885
fffc4885
fffc4885
fffc4885
fffc4885
fffc4885
fffc4885
fffc4885
fffc4885
fffc4885
fffc4885
fffc4885
fffc4885
fffc4885
fffc4885
fffc4885
fffc4885
fffc4885
fffc4885
fffc4885
fffc4885
fffc4885
fffc4885
fffc4885
fffc4885
fffc4885
fffc4885
fffc4885
fffc4885
fffc4885
fffc4885
fffc4885
fffc4885
fffc4885
fffc4885
fffc4885
fffc4885
fffc4885
fffc4885
fffc4885
fffc4885
fffc4885
fffc4885
fffc4885
fffc4885
fffc4885
fffc4885
fffc4885
fffc4885
fffc4885
fffc4885
fffc4885
fffc4885
fffc4885
fffc4885
fffc4885
fffc4885
fffc4885
fffc4885
fffc4885
fffc4885
fffc4885
fffc4885
fffc4885
fffc4885
fffc4885
fffc4885
fffc4885
fffc4885
fffc4885
fffc4885
fffc4885
fffc4885
fffc4885
fffc4885
fffc4885
fffc4885
fffc4885
fffc4885
fffc4885
fffc4885
fffc4885
fffc4885
fffc4885
fffc4885
fffc4885
fffc4885
fffc4885
fffc4885
fffc4885
fffc4885
fffc4885
fffc4885
fffc4885
fffc4885
fffc4885
fffc8d90
fffc8d90
fffc8d90
fffc8d90
fffc8d90
fffc8d90
fffc8d90
fffc8d90
fffc8d90
fffc8d90
fffc8d90
fffc8d90
fffc8d90
fffc8d90
fffc8d90
fffc8d90
fffc8d90
fffc8d90
fffc8d90
fffc8d90
fffc8d90
fffc8d90
fffc8d90
fffc8d90
fffc8d90
fffc8d90
fffc8d90
fffc8d90
fffc8d90
fffc8d90
fffc8d90
fffc8d90
fffc8d90
fffc8d90
fffc8d90
fffc8d90
fffc8d90
fffc8d90
fffc8d90
fffc8d90
fffc8d90
fffc8d90
fffc8d90
fffc8d90
fffc8d90
fffc8d90
fffc8d90
fffc8d90
fffc8d90
fffc8d90
fffc8d90
fffc8d90
fffc8d90
fffc8d90
fffc8d90
fffc8d90
fffc8d90
fffc8d90
fffc8d90
fffc8d90
fffc8d90
fffc8d90
fffc8d90
fffc8d90
fffc8d90
fffc8d90
fffc8d90
fffc8d90
fffc8d90
fffc8d90
fffc8d90
fffc8d90
fffc8d90
fffc8d90
fffc8d90
fffc8d90
fffc8d90
fffc8d90
fffc8d90
fffc8d90
fffc8d90
fffc8d90
fffc8d90
fffc8d90
fffc8d90
fffc8d90
fffc8d90
fffc8d90
fffc8d90
fffc8d90
fffc8d90
fffc8d90
fffc8d90
fffc8d90
fffc8d90
fffc8d90
fffc8d90
fffc8d90
fffc8d90
fffc8d90
fffc8d90
fffc8d90
fffc8d90
fffc8d90
fffc8d90
fffc8d90
fffc8d90
fffc8d90
fffc8d90
fffc8d90
fffc8d90
fffc8d90
fffc8d90
fffc8d90
fffc8d90
fffc8d90
fffc8d90
fffc8d90
fffc8d90
fffc8d90
fffc8d90
fffc8d90
fffc8d90
fffc8d90
fffc8d90
fffc8d90
fffc8d90
fffc8d90
fffc8d90
fffc8d90
fffc8d90
fffc8d90
fffc8d90
fffc8d90
fffc8d90
fffc8d90
fffc8d90
fffc8d90
fffc8d90
fffc8d90
fffc8d90
fffc8d90
fffc8d90
fffc8d90
fffc8d90
fffc8d90
fffc8d90
fffc8d90
fffc8d90
fffc8d90
fffc8d90
fffc8d90
fffc8d90
fffc8d90
fffc8d90
fffc8d90
fffc8d90
fffc8d90
fffc8d90
fffc8d90
fffc8d90
fffc8d90
fffc8d90
fffc8d90
fffc8d90
fffc8d90
fffc8d90
fffc8d90
fffc8d90
fffc8d90
fffc8d90
fffc8d90
fffc8d90
fffc8d90
fffc8d90
fffc8d90
fffc8d90
fffc8d90
fffc8d90
fffc8d90
fffc8d90
fffc8d90
fffc8d90
fffc8d90
fffc8d90
fffc8d90
fffc8d90
fffc8d90
fffc8d90
fffc8d90
fffc8d90
fffc8d90
fffc8d90
fffc8d90
fffc8d90
fffc8d90
fffac8b9
fffac8b9
fffac8b9
fffac8b9
fffac8b9
fffac8b9
fffac8b9
fffac8b9
fffac8b9
fffac8b9
fffac8b9
fffac8b9
fffac8b9
fffac8b9
fffac8b9
fffac8b9
fffac8b9
fffac8b9
fffac8b9
fffac8b9
fffac8b9
fffac8b9
fffac8b9
fffac8b9
fffac8b9
fffac8b9
fffac8b9
fffac8b9
fffac8b9
fffac8b9
fffac8b9
fffac8b9
fffac8b9
fffac8b9
fffac8b9
fffac8b9
fffac8b9
fffac8b9
fffac8b9
fffac8b9
fffac8b9
fffac8b9
fffac8b9
fffac8b9
fffac8b9
fffac8b9
fffac8b9
fffac8b9
fffac8b9
fffac8b9
fffac8b9
fffac8b9
fffac8b9
fffac8b9
fffac8b9
fffac8b9
fffac8b9
fffac8b9
fffac8b9
fffac8b9
fffac8b9
fffac8b9
fffac8b9
fffac8b9
fffac8b9
fffac8b9
fffac8b9
fffac8b9
fffac8b9
fffac8b9
fffac8b9
fffac8b9
fffac8b9
fffac8b9
fffac8b9
fffac8b9
fffac8b9
fffac8b9
fffac8b9
fffac8b9
fffac8b9
fffac8b9
fffac8b9
fffac8b9
fffac8b9
fffac8b9
fffac8b9
fffac8b9
fffac8b9
fffac8b9
fffac8b9
fffac8b9
fffac8b9
fffac8b9
fffac8b9
fffac8b9
fffac8b9
fffac8b9
fffac8b9
fffac8b9
fffac8b9
fffac8b9
fffac8b9
fffac8b9
fffac8b9
fffac8b9
fffac8b9
fffac8b9
fffac8b9
fffac8b9
fffac8b9
fffac8b9
fffac8b9
fffac8b9
fffac8b9
fffac8b9
fffac8b9
fffac8b9
fffac8b9
fffac8b9
fffac8b9
fffac8b9
fffac8b9
fffac8b9
fffac8b9
fffac8b9
fffac8b9
fffac8b9
fffac8b9
fffac8b9
fffac8b9
fffac8b9
fffac8b9
fffac8b9
fffac8b9
fffac8b9
fffac8b9
fffac8b9
fffac8b9
fffac8b9
fffac8b9
fffac8b9
fffac8b9
fffac8b9
fffac8b9
fffac8b9
fffac8b9
fffac8b9
fffac8b9
fffac8b9
fffac8b9
fffac8b9
fffac8b9
fffac8b9
fffac8b9
fffac8b9
fffac8b9
fffac8b9
fffac8b9
fffac8b9
fffac8b9
fffac8b9
fffac8b9
fffac8b9
fffac8b9
fffac8b9
fffac8b9
fffac8b9
fffac8b9
fffac8b9
fffac8b9
fffac8b9
fffac8b9
fffac8b9
fffac8b9
fffac8b9
fffac8b9
fffac8b9
fffac8b9
fffac8b9
fffac8b9
fffac8b9
fffac8b9
fffac8b9
fffac8b9
fffac8b9
fffac8b9
fffac8b9
fffac8b9
fffac8b9
fffac8b9
fffac8b9
fffac8b9
fffac8b9
fffac8b9
fffac8b9
fffb9dcf
fffb9dcf
fffb9dcf
fffb9dcf
fffb9dcf
fffb9dcf
fffb9dcf
fffb9dcf
fffb9dcf
fffb9dcf
fffb9dcf
fffb9dcf
fffb9dcf
fffb9dcf
fffb9dcf
fffb9dcf
fffb9dcf
fffb9dcf
fffb9dcf
fffb9dcf
fffb9dcf
fffb9dcf
fffb9dcf
fffb9dcf
fffb9dcf
fffb9dcf
fffb9dcf
fffb9dcf
fffb9dcf
fffb9dcf
fffb9dcf
fffb9dcf
fffb9dcf
fffb9dcf
fffb9dcf
fffb9dcf
fffb9dcf
fffb9dcf
fffb9dcf
fffb9dcf
fffb9dcf
fffb9dcf
fffb9dcf
fffb9dcf
fffb9dcf
fffb9dcf
fffb9dcf
fffb9dcf
fffb9dcf
fffb9dcf
fffb9dcf
fffb9dcf
fffb9dcf
fffb9dcf
fffb9dcf
fffb9dcf
fffb9dcf
fffb9dcf
fffb9dcf
fffb9dcf
fffb9dcf
fffb9dcf
fffb9dcf
fffb9dcf
fffb9dcf
fffb9dcf
fffb9dcf
fffb9dcf
fffb9dcf
fffb9dcf
fffb9dcf
fffb9dcf
fffb9dcf
fffb9dcf
fffb9dcf
fffb9dcf
fffb9dcf
fffb9dcf
fffb9dcf
fffb9dcf
fffb9dcf
fffb9dcf
fffb9dcf
fffb9dcf
fffb9dcf
fffb9dcf
fffb9dcf
fffb9dcf
fffb9dcf
fffb9dcf
fffb9dcf
fffb9dcf
fffb9dcf
fffb9dcf
fffb9dcf
fffb9dcf
fffb9dcf
fffb9dcf
fffb9dcf
fffb9dcf
fffb9dcf
fffb9dcf
fffb9dcf
fffb9dcf
fffb9dcf
fffb9dcf
fffb9dcf
fffb9dcf
fffb9dcf
fffb9dcf
fffb9dcf
fffb9dcf
fffb9dcf
fffb9dcf
fffb9dcf
fffb9dcf
fffb9dcf
fffb9dcf
fffb9dcf
fffb9dcf
fffb9dcf
fffb9dcf
fffb9dcf
fffb9dcf
fffb9dcf
fffb9dcf
fffb9dcf
fffb9dcf
fffb9dcf
fffb9dcf
fffb9dcf
fffb9dcf
fffb9dcf
fffb9dcf
fffb9dcf
fffb9dcf
fffb9dcf
fffb9dcf
fffb9dcf
fffb9dcf
fffb9dcf
fffb9dcf
fffb9dcf
fffb9dcf
fffb9dcf
fffb9dcf
fffb9dcf
fffb9dcf
fffb9dcf
fffb9dcf
fffb9dcf
fffb9dcf
fffb9dcf
fffb9dcf
fffb9dcf
fffb9dcf
fffb9dcf
fffb9dcf
fffb9dcf
fffb9dcf
fffb9dcf
fffb9dcf
fffb9dcf
fffb9dcf
fffb9dcf
fffb9dcf
fffb9dcf
fffb9dcf
fffb9dcf
fffb9dcf
fffb9dcf
fffb9dcf
fffb9dcf
fffb9dcf
fffb9dcf
fffb9dcf
fffb9dcf
fffb9dcf
fffb9dcf
fffb9dcf
fffb9dcf
fffb9dcf
fffb9dcf
fffb9dcf
fffb9dcf
fffb9dcf
fffb9dcf
fffb9dcf
fffb9dcf
fffb9dcf
fffb9dcf
fffb9dcf
fffb9dcf
fffb9dcf
fffb9dcf
fffb9dcf
fffbfd11
fffbfd11
fffbfd11
fffbfd11
fffbfd11
fffbfd11
fffbfd11
fffbfd11
fffbfd11
fffbfd11
fffbfd11
fffbfd11
fffbfd11
fffbfd11
fffbfd11
fffbfd11
fffbfd11
fffbfd11
fffbfd11
fffbfd11
fffbfd11
fffbfd11
fffbfd11
fffbfd11
fffbfd11
fffbfd11
fffbfd11
fffbfd11
fffbfd11
fffbfd11
fffbfd11
fffbfd11
fffbfd11
fffbfd11
fffbfd11
fffbfd11
fffbfd11
fffbfd11
fffbfd11
fffbfd11
fffbfd11
fffbfd11
fffbfd11
fffbfd11
fffbfd11
fffbfd11
fffbfd11
fffbfd11
fffbfd11
fffbfd11
fffbfd11
fffbfd11
fffbfd11
fffbfd11
fffbfd11
fffbfd11
fffbfd11
fffbfd11
fffbfd11
fffbfd11
fffbfd11
fffbfd11
fffbfd11
fffbfd11
fffbfd11
fffbfd11
fffbfd11
fffbfd11
fffbfd11
fffbfd11
fffbfd11
fffbfd11
fffbfd11
fffbfd11
fffbfd11
fffbfd11
fffbfd11
fffbfd11
fffbfd11
fffbfd11
fffbfd11
fffbfd11
fffbfd11
fffbfd11
fffbfd11
fffbfd11
fffbfd11
fffbfd11
fffbfd11
fffbfd11
fffbfd11
fffbfd11
fffbfd11
fffbfd11
fffbfd11
fffbfd11
fffbfd11
fffbfd11
fffbfd11
fffbfd11
fffbfd11
fffbfd11
fffbfd11
fffbfd11
fffbfd11
fffbfd11
fffbfd11
fffbfd11
fffbfd11
fffbfd11
fffbfd11
fffbfd11
fffbfd11
fffbfd11
fffbfd11
fffbfd11
fffbfd11
fffbfd11
fffbfd11
fffbfd11
fffbfd11
fffbfd11
fffbfd11
fffbfd11
fffbfd11
fffbfd11
fffbfd11
fffbfd11
fffbfd11
fffbfd11
fffbfd11
fffbfd11
fffbfd11
fffbfd11
fffbfd11
fffbfd11
fffbfd11
fffbfd11
fffbfd11
fffbfd11
fffbfd11
fffbfd11
fffbfd11
fffbfd11
fffbfd11
fffbfd11
fffbfd11
fffbfd11
fffbfd11
fffbfd11
fffbfd11
fffbfd11
fffbfd11
fffbfd11
fffbfd11
fffbfd11
fffbfd11
fffbfd11
fffbfd11
fffbfd11
fffbfd11
fffbfd11
fffbfd11
fffbfd11
fffbfd11
fffbfd11
fffbfd11
fffbfd11
fffbfd11
fffbfd11
fffbfd11
fffbfd11
fffbfd11
fffbfd11
fffbfd11
fffbfd11
fffbfd11
fffbfd11
fffbfd11
fffbfd11
fffbfd11
fffbfd11
fffbfd11
fffbfd11
fffbfd11
fffbfd11
fffbfd11
fffbfd11
fffbfd11
fffbfd11
fffbfd11
fffbfd11
fffbfd11
fffbfd11
fffbfd11
fffbfd11
fffa498c
fffa498c
fffa498c
fffa498c
fffa498c
fffa498c
fffa498c
fffa498c
fffa498c
fffa498c
fffa498c
fffa498c
fffa498c
fffa498c
fffa498c
fffa498c
fffa498c
fffa498c
fffa498c
fffa498c
fffa498c
fffa498c
fffa498c
fffa498c
fffa498c
fffa498c
fffa498c
fffa498c
fffa498c
fffa498c
fffa498c
fffa498c
fffa498c
fffa498c
fffa498c
fffa498c
fffa498c
fffa498c
fffa498c
fffa498c
fffa498c
fffa498c
fffa498c
fffa498c
fffa498c
fffa498c
fffa498c
fffa498c
fffa498c
fffa498c
fffa498c
fffa498c
fffa498c
fffa498c
fffa498c
fffa498c
fffa498c
fffa498c
fffa498c
fffa498c
fffa498c
fffa498c
fffa498c
fffa498c
fffa498c
fffa498c
fffa498c
fffa498c
fffa498c
fffa498c
fffa498c
fffa498c
fffa498c
fffa498c
fffa498c
fffa498c
fffa498c
fffa498c
fffa498c
fffa498c
fffa498c
fffa498c
fffa498c
fffa498c
fffa498c
fffa498c
fffa498c
fffa498c
fffa498c
fffa498c
fffa498c
fffa498c
fffa498c
fffa498c
fffa498c
fffa498c
fffa498c
fffa498c
fffa498c
fffa498c
fffa498c
fffa498c
fffa498c
fffa498c
fffa498c
fffa498c
fffa498c
fffa498c
fffa498c
fffa498c
fffa498c
fffa498c
fffa498c
fffa498c
fffa498c
fffa498c
fffa498c
fffa498c
fffa498c
fffa498c
fffa498c
fffa498c
fffa498c
fffa498c
fffa498c
fffa498c
fffa498c
fffa498c
fffa498c
fffa498c
fffa498c
fffa498c
fffa498c
fffa498c
fffa498c
fffa498c
fffa498c
fffa498c
fffa498c
fffa498c
fffa498c
fffa498c
fffa498c
fffa498c
fffa498c
fffa498c
fffa498c
fffa498c
fffa498c
fffa498c
fffa498c
fffa498c
fffa498c
fffa498c
fffa498c
fffa498c
fffa498c
fffa498c
fffa498c
fffa498c
fffa498c
fffa498c
fffa498c
fffa498c
fffa498c
fffa498c
fffa498c
fffa498c
fffa498c
fffa498c
fffa498c
fffa498c
fffa498c
fffa498c
fffa498c
fffa498c
fffa498c
fffa498c
fffa498c
fffa498c
fffa498c
fffa498c
fffa498c
fffa498c
fffa498c
fffa498c
fffa498c
fffa498c
fffa498c
fffa498c
fffa498c
fffa498c
fffa498c
fffa498c
fffa498c
fffa498c
fffbc815
fffbc815
fffbc815
fffbc815
fffbc815
fffbc815
fffbc815
fffbc815
fffbc815
fffbc815
fffbc815
fffbc815
fffbc815
fffbc815
fffbc815
fffbc815
fffbc815
fffbc815
fffbc815
fffbc815
fffbc815
fffbc815
fffbc815
fffbc815
fffbc815
fffbc815
fffbc815
fffbc815
fffbc815
fffbc815
fffbc815
fffbc815
fffbc815
fffbc815
fffbc815
fffbc815
fffbc815
fffbc815
fffbc815
fffbc815
fffbc815
fffbc815
fffbc815
fffbc815
fffbc815
fffbc815
fffbc815
fffbc815
fffbc815
fffbc815
fffbc815
fffbc815
fffbc815
fffbc815
fffbc815
fffbc815
fffbc815
fffbc815
fffbc815
fffbc815
fffbc815
fffbc815
fffbc815
fffbc815
fffbc815
fffbc815
fffbc815
fffbc815
fffbc815
fffbc815
fffbc815
fffbc815
fffbc815
fffbc815
fffbc815
fffbc815
fffbc815
fffbc815
fffbc815
fffbc815
fffbc815
fffbc815
fffbc815
fffbc815
fffbc815
fffbc815
fffbc815
fffbc815
fffbc815
fffbc815
fffbc815
fffbc815
fffbc815
fffbc815
fffbc815
fffbc815
fffbc815
fffbc815
fffbc815
fffbc815
fffbc815
fffbc815
fffbc815
fffbc815
fffbc815
fffbc815
fffbc815
fffbc815
fffbc815
fffbc815
fffbc815
fffbc815
fffbc815
fffbc815
fffbc815
fffbc815
fffbc815
fffbc815
fffbc815
fffbc815
fffbc815
fffbc815
fffbc815
fffbc815
fffbc815
fffbc815
fffbc815
fffbc815
fffbc815
fffbc815
fffbc815
fffbc815
fffbc815
fffbc815
fffbc815
